
  window.WEIGHTS_B64 = ["9EqlvUyxCT4/b5U+qM7rvjUhVz6AOJe9b6ikPpBayT5tiGs+dmv1v8ZImz612my+Mi1VPkUACj5EIbY75U5QPoN6uL5DrHu+7D/dPSx7Bj1P/te9TWs8vsS/J7+uXu69KaJXvqrrZT7kzIo+YZ+6PW46Eb4LJAA+aRxQvk3siL77Zj4+UthCvv+22L2ipDw+5M8QvuJCEb1KuRs+XJQGvm9tZD79Lm4+YpLWO9SJsb7xdTE+7KaGv+InbD5v9xq+CMOovqGMMb1hl1a9ZF0KPqTCUz4l0Hw7JfNIPhwIHj4hR7m8KIgFu/C/ar5U3dY9wdwRPTOzsD5aX2Q9fL+rvSaUBL3QZAS+YLCkPo2ppz1mQIY9/JFsvY9Msb1tCME+PGKDPj72Qj7RaAC8OXiUvvGKiD6A+Pw8fQV2PsQcdz7YXsS9j9EyvG9OVzwzHBG+1OMjPl9IT770hHM9a/dNvYWm9DwJh+K9uJLpO86XzTxMJec9VMY7vVYhMDxivJ+9jXDGvey2oT3IfNU9neFCvb6uur37Mt89s0ZmvWWipL5NgKs998W/PU7OWT0kvje9zphCvWR2PDtYMcO9cBjtvStjN7r15hY8sZq+PaXotz1dUVM8mHKLO1qt4z0FuFO9NhyEvBr0sbutS4a9F1LwvSwkn70nqhS+0fAvvbVP6737rOK8rGOZPaP8+jsEc7u8knEkPCX2Vj0aqxm9GZuTPeNX4Tx5MWY8lj+KvIIhDztQD6k86z/yPBBfIj4gTPs8ypX8vN431L0TuhI+/PGHukAy57xyCgK+0Ye9vajJGL5bPow+7SPAPQehFb3y1fa97ZxXPfy+2rvXB5A9qOhbvRp6PT3e6Os9ib0MvjHNIz614/e8NMmuPdXYOL2tBow9CN4xPlSmEr0tHIg9N1MovpIlbj0l3Zo9cTPnvPpYnLxZly099O8jPquhCz1ejT0+TheyPb3KaT4nx4w6/MyQPj57fj2Ecry8UIxtPEuu7r36YIo8MkiiPVDd1j2riNQ9gNt9PV6Kyz0Dj7g9E60pu+0rRL3wSBK9KUYUvjFvNb49bRi7yrk8PS1fnrxkdQI+3Y+yvXA5Bj4OOni+6BZyvWtDM74NkVY9ZJ8YPjcSoz1/8Ls8KGXiu8agPb2BFym94B2qvWiKmL242a091E6jPXQI9bsGMzq+G/FyPRLXEb4TMge9ME8AOTzsw71P7aE8GUL0PNYYwj2AySk+VGyNPTJVjblD6Ky8sfogPuluL76kz/M9ATV+POWDDz1yYA2+XDkKvfk3Dz2OX1G90n3du1as5jze7aO8t6q6vaNPlLw16i4+FsiXPeQahbwkrbK9hYUIPXPvajwyyvK9FFHsvQ1C3z0I13w9k6IgvMbWFj7N7QQ9r8/QPeT8bT0KwYY81TMqPU3ivryYb7I8IYgNvkD5JLmvnl89oOH3PR5smj3XpuS8aGehPZ+pqzxsIGm9MDUgPPMMM72SQPG9oDI+PL6q6L30GeQ7IG9PvnqfzD2Xr4S91A8VPtdnhL5pcv462Ba2PfQ29Ty2pM89AMD+vPkdJjtFFK69n3JlPPR/mLwX5iO9zZ0mPMBtJD6Pn3E8PL/ZOqnNcr34iL89mpQSvlkOAbx6MuI9aZvAu3zx6rx/wEi9nBelvZ7cjj2qNYW8DpAqPbfLIT0CqRM883LHvF9jZz022Ru9YvxHPV2t3L2KlQk8BwYrPvvtXb0qBJI97zBgvWdxFz6YOo29KZ6IvFCR+r1t710+K+EyPSHVF77+NTS+fGSBPSjZB71tzLC8nuU+vjEv3j03miI+XGesPZew1ztSI3o9GZk9PSTkxj3PqY2706UkvmwtP72qv5S9wGfrvIbHKD2rQuK9FD9LvXtgHL3ghxE++yMYvqUB+bwO7cs9nppkvSt497zga+G9eT/4vCpy8TwnVYE+GnvOPn5M7r15Q10+HYUXPq+DSb7nQus92druvK3gUj2L+kg9GBF/PBkJDz1UiTG98XQUPMF9br59eQa+1AdrPalT6z0vjhe94JPMvYnR8b1QkTm8r1sfPWCRmzz3cVK9ScwSPdyMyTyG8I89FIrtPboKOT0yvxU9lfw/vu10Ej5ZVwW+FrQjvjQK2T3fSX89WRc7viehzD1l2U29HQVxvfrLur2Muh8+1YuVPK+Cmr0s/l27UEgFPe1j4T468KM9/UAyPLNXQb3qOss9N8jmPXWVIju/Vd49OTc1vNuj/j3gVUg9k5auOa7DwT3QlGM+urcEPRL6rjzf7WG9gmd/PHLfED7D51A98YC2PeccWrw+miE+Johhvdk+VD0LB7Y8hufgvYNiLzzw2y69wxsKvqRxS7xKBmu9OQ5IPMvltj1Qg5I+O5epu0UMJD7LOUO9z2xyPfCyqT4Lqbe9tzi2PXDwlT33Siq9pHXMPeRwqrsVyaW90Rkevi1YDb5OvWI9zgd/Pc0ol7zC4S2+WWS3vVz1qDxEVik9BsqdPHGEob2IGMY80a+GPDqfID6EH1E91YjWPWuafr53IFW+wFpMO9VIyD1vViO9CDJ1vYFgCz0rRoK9F8QSPksonb2E/sy9rYrDvfdwob3zLI6+K9mZvVW+2D2KXmE+z+O+vehbKTyQ+n6+X+zIPOd3tT3V26c9QJjRPP1WED593G09fqcjPPa8rT1de3S9dWx4PpMk8TyNW2o5ytjuPRlWqD3ObTE+4q6QPSsZW70Q7fE910KkPeHHUz4p6ng8o3G4PaitGzsiDTW5OEAEPQVuwr30ihi+kBS3vXtc9rqnc2I9sN4PvpOu7L2DtEu92iRkPgS0a77uLgo8JNrjPPupR71m8zA+pnSpPXDbqz2mkI89ioKPPSvTnL2XtQo+7prOPY+t6D1Zy0W9W2qKvCOuML0nifQ9y/hLvZRaI7y3O549wf8gvj6/kbsY8/m8GST0PHsODT6jnFY+FEpivjWHgz03KKm82jqruzFLejryUre94tIPvTOmrrw16k29NUXJvbZo0zzOnYS+euRdPTvcFD4wv4Y9BcJuvU4ES74Qxck9wyFYPcI4OT6Egl8+vCy1vHks5D1Wtqg8fganvo6HAjxtIco9ZsWQvlmm2L28kwi9GPzfvZN0Nr70M7G9rykDPhDaqD2RpAg+bSTAvbvUm7tKqI++0P48vr6dlz2tOUM9zdO/vUKyxj2K5oc9DqKbvPE2aj6f22+9g7QSPSeL6L0VLwM+Mc0NvsMEML3eVui+6tmNPoUGEL2HAwM+zO/AO4hntL2uHqa9azvWPLlbQz6AIjU90glRPXyp3j3hRc+96vbnvYF6bz24Mo67N545PqgOTz34/Bs+byd6PfVuI74lrAQ+YZmmPbFFA7tbRzc8KgwTvpu/hr3XYj6+pYn8Owk9U77STs47nmgtvURe/jzriI895CeyPUL68zwxXRc9edPbvf4SQL5DUUo9XK2gvXEJAb3JlvA8+YOePmHDa7v3JRU+vyV0vguiHD6Fl388TZ7JvbD9o735+1C+sbYlPhmayzwb3e+8j/s1PVGALz6Tbw6+ElA1Pl1BFr1J5dC4VudmPX2b5L1jQQS+E3PKPcQUHzwZC648DekEPs2e/D2T+D088LGePEOvIjteVvC9AylSvqc/GL7vpBq8JGm+PCYEeb0bMUO9AjfevbjI471rsUK+5cGFveMqvL0q4MM7O2+MPeDyQjzRpGA9IL92PZR0qTwfhe68Q5S9PV8y6z1QfiM+ZqnIvMwFJb2yHV495d3xPUBdMb7Vpse8f/4PvhJnQT0Duzw9/wLVvE7INL6VD+s9XEXYu8dIBz5tDKw9pdASu6T5wr3tZg8+D0AHvTpHcz6NNu+90ZjPPf44Bj7HU0K9Fr1WvTsrfr1pYSA9CyygvC9kdj2jD9U7yFPOvfPmjDwy9AE8BG6EPeku2rw81xe+n8oEPk/xlz0tScY9KSMzvjQwAz0xhaa7QBbkvTR8/71Up4c+KS6pPR46rT01hE49pOPPva7OA703IT28wLG1Pfu7CD7tRj0+kUciPQFlwL1uKis+eKinu/1c0zxlZyC+x5CRvv3emT0hMZg9aDBZPsGVA76p9pm8wWyqPtncbL2tgwq+S5R5vrlJ4DyItUc9IMOdvHeRoz2kIHY9E5gRO15AdDy9iGo+e5MJPoB8UD1jscm9UtOmPI6eIT7FTk87j4qbvfVIMb3qv7+8VGNdvffTIT07ZIK8BtLIvdMNuz1uIb879N6uPW7dQbxTuAk+JXSHvcnECT7BTRA+Y+nCvUPyBD3d4vk9Gm4FPnW1cj7gSgC+pCEJPsShUz5IG6Y+BzkPPlq39jzwZVq/59pJPef8szyk0xu+CAeWvGX+0D1UWJw+2qo2vkX+mr3WPAa+TuBRuK5KSr6j/h++VncNvm7XD7/QQ1+8d3isPU4AkT2Go7y9gNc3Phjts71ETyu+YaUvvkiggTyxCcq+BdG5PXiGgj4d5hQ+8zpFPZg4xD5T75K+0WiePp0vmj5UY52+M3WcPY01kT0T5ES/x3dmPl1ATb3Ns2G+zUYRvYoF0L133a0+HNXgvvqGEL1+anc+26BUPn2xWj6cnAM+1EcrvjbMGj3Reus89TQJPU3Xyb7DTpg+ZoGqvZeEez3wAkW+V9XtPG/uHz4PSiK+/kAbPpDw2j2uJm0+btvUvDsEGj4le+6+OEGEPQWapLyeVga+GbjDPYAHcr0Fo4i+3HSfPqddMr9KFWI+lZY4vhkMsD0hUMM8crPWPi+COb/R3Qg+phrkvq2zurzxFzM+VEGKPlys0r30RGu+IJyYvcI/gz3z9jq+fBdnvexqHbzOyfK9bT+Svpnfrr0Kl30+1AzxvGcdgT4C2ZW+fb/lPXImzL2a/6C+VEw/PHnE6jwMaXy+0BSfPfMlB77X5pE9ipwSPsuqQL00sA2+8b4qvg3Vwj68NqO+l6aDPi7kP7+FfZg9cH4dvj16Oz5d5yy+kNgrPLV3ArxaxN494otgPmqNUb1nSXc+ipMcvp7cqz3vPDy+v5grvhf6Fb1dPog+gBpjPDo8rr2qKmQ+Bm+DPut8Qj7W0Rg+9+AhPjRlNj6rxye+rt2IPuYUxb4B2ee+oIZhvm7UWrtBkBS+xeIYvmM7mz4dVv49KanWPTHYfLxRHBu/YQ0Zvm7qJL4BTJY+MA5xvdBxLD6vCd0+LjClvelnsb0pLou+sft9PS/xWD5HTKC9lnoJPlG/lL68voq+/p6BPSmeOb7A6ym+6QDovkxXlL6C1889O6Imvl3k5r1BtBO/mH8aPuAjir4dA1G9xqFoPeF/U71wWZU+OKsovX6exzu81BI+MnUpPpYfOz2fv5u9GddWvrypfz6+HUU94qH1vjhmUr5ZicA8hc66vlCme73WkSu9DV6Zvoh8Fz7qtis+GESNPVLiEz5wuaQ9mWDCvtmgaTvpOhM9+t+9PjVZrb0UXF09XeUrvtN8XT56Va++yM0RvxU4iT00aA++ajYJvgFFnT1OaHI8xaLMvU5Jij33NE8+3HeJPaQ8mb5DnSQ+y+alvhnA+T4BI4S8mooNPjyFrzxBupI+tlh9PaodkL5RZDw9DYEDvltUlT2L1A++V6lEPk0apj48mw+/sUChPclt4r7G/yE+mbZKPhRLe746Y5O+pbTNvfX2pj2ujxa9/592vhhKlD0Gzoa7l5yVvfr2YjzZeJo8a1RLPI3g8T0w9ja7yPmhvWF4aD5JFwu9JeEwPjCKBj642+I++4wEPYh5VDy78we+54zovZJ2gr781k29vJaXvTaSSb0AeDy9inhuvUOD6LvqJhu/ZZ8LPpz/ML7zEcq+99K0PPRJ/T4Usl49u4v2PZ4prz5XoOS+y6noPQ6rwLzXr8k9/R4fPmrATz3JVxo73f5PvUGcDj712ha+96sFPosRBD5Y30u+x+CoPs5pQj4iu4G+J76zvQzjaT7Gkme961r0vT4EHz7uMIs8tJ9aPRLpHj7/aKW9bFZBvvY3Szs/NX+/skRMPowokb4mmq89b630vs7R9z0kJoi9qSt5PmnYRT77zh4+Xu3qvbWPiDw9Hwq+0jnPPnyLij6leuK+uC0sPs+UjD1ldJK9l4MlPgddg73dSLg8oiRuvqPMIL381zk8x1SivaYRsL0m7Cm9BhZtPirviz1lvrq+Be1LPMe3O72WF5m+B9tCPbbTO76OXSo9skMEPaj/sb0qU3+9BLU1PqE0Pb5+jY+96n4PPqMR+r4N7nI9Le3hvejiUz5h01Q+pqHUPVewzj1oVF69D+HIPspuh701KRU+J2IlP5YNkb0Sz9g9r8NpvJ+PeL6ZOYw9FvI8PwrJrz4KTwk/n5xmvX5NOT4vqkw+a7NPv+fFnj7ejhW/pDPlvpzGpL7GC3g+W6kqvhXUbr0RGXk+1tABvhS/K74Qc8s+KlQZvhNQIT55UuE8SfVTPrzKBD5NYBa9c0tbPt72Bz4fAhg92rEzv3GnIb5fX6a+rGeMvj9d372xzjA9M2TnvRC7br5naxU+1nUhPEKAFD4+SPm9NSWOPVVOKD4yPZs+g5SAvYA+Kz0WF5q9gjiUvzz3AT5LBWm9TZAlPiN/Sj1WVdg9ct2bvVNE2j5vH+y9zyMYvLJ5mT40UTw+XFSxPSrSq70mHFo9AMwVvm6aNz7gJny84+gpvrkpwr2NPFo+T4GmvmfCgj72QBK+aUs0PJrkNb7xh1m+f45EPI2BFD5oxHC+U8UAvrVivj7C1Xc+JcsWvWkal77aM3E9ANByv03X171ZpLq+104/PlHzcr/XVCC+GhINvqBTFD8D2Ie9r8f7PHdroD3plna92g9PPmGEDj5if8c8CylWPXWDL75hOHi95MT9vkn8x7yhVXS+Ii94vsApvL5XFEE+T/yFPni9lD0Dp0y/3z+BPR5yUT7364W8nM1QPYplSj5G8ZY9sgkOPjJBo76Kc0S96bgPvU7Kkj3PWsY+3qppvvZkfb48N7e9RCYSvjESxjt0doq9qbesPXf01D4Fis49x8wHvw6buT12aqW+m7kcPVaviz3r0zY+22wQvaEYhD4v2qM+y0UlPmlHmbtqt9q9QE+3vkKtgjvMjQy/qBNVPrIvULyARR6/YpyPPd/IFT4ujrQ+IgUru4Q8lz4MuW++n3RyPWgcnD6tDnU9XuV9vAA8PT1UniG9njhYPd6NOD63IBk+J/KqvZAhrb2SJi6+zegDv7rBm7xg5rI9MtW3vsanmb0gR5w+UCKJPqKLA75qHoA9lYvOu+fj1b7gKx69pXCUPU/Dozwi1kg+1eQHvTAGx73cqTS+wjtGPhZC071zq3I65R/ePUXLj74S29Q9xYCCvjrmoTsdrFs+yReMPDPhAD7TBJW+f5zPvfYpGD4ID5S+RjA/PtLDEb9MnAe+CxkCP48Qn7xsEAK+D8Ervl6XtLzTZcW97bhYPa3HaD1RWc888HmkPVfIrT5wsH091205PjLVoz0O2mO8uBNzPR/I7rz7avY9/Vu1vb4P1b30WWg9Ez8evoJyCb/P7kc+gFDAPSOZIz7PCOc8Du+qPj8mcz1EK4k9SyyoPQ81j767jT2+1/l/vgcm27yygV+8slSKvMHbZT3k3yu+IPIBvnJEBb8v0My8KLv3PUAuYb5xkx+9Vi06POJ2nj17Zo4+/bmrvbvx5L1aslq9WAfOvfxxxr7pkQY+pVp+O27wSb0RgO697R5gvqbM8D0wOyI+rMUxvgKWirzqtye+qSrOPUbgHj6sgAC92ampvgaFbz1oiEm+eUlVPkFh9bzYnRC+1IWmPZU14L4tqqo9QGYjPTje1Ly7lXs9srJTvtI1BL8XMoK9w8cKvg3/PD+82mY+eLCKPZ1ojL62ZZi9fPalvXlm4L5IkwI8LiOdPe/iOb5DibQ+6MItvr2pPT4Z1ym+IEURPqu7Mz4URBE9rSH1voYXsL0WlBg+JRgUvyGUdL4zmB6+LISyvdsBcb08JsC95Znjvja8wD70htW92qwoviI2Sj5uola+DDYjvSWVqL0IcXo8evcLPvhb+j40UoQ+cn7KvrGAoz2L+q69NV2cPlbYdL5K8eS9vV0nvno2dr9HiAU+zksbvnIOQT2Hpac9c1jfPVSz0TtRhqA+IZfKPRPz8D269Se+O/6qPvjMiLxqc2o+I26oPWs42T7CBsS+GB/zvANBmb4cOvG9EuxIPm3NhL7Lz5Q+wEbQvUM6L7z/h4m9PdTFvv/CAD5cBH48CTOBvfi/PD6I5Y2+2z2HuwqtG798MuK8GHHpvcROlD6mAyi+AqCMPm4Jpr3i+jK+uEdTvZ57HL4HpYM+FmZevqd9gz3/lzk+e9uDvbS8Wr3uh0Q+gNZGPFAyWD3hkkS+x2iuvQetfr5dX+e+zY8hvWm5lb34O6K+57SqvFRK4D1E5eu9tWCOPVQFVb6fl6a8D/ULPgXu274JDei9dHKRvpQ4Hz6cD/w9QXIHPl12YT15ObS+fIuHPsCK7r0I+Cg+CoSZPiM4rL4/5OI75gyEv+dLuz4evX49R0DUPrqKIr1g2be9P8RqvllTqz4aXLQ8Ct+xPPf3Nb7uGZM8iqhTPkk0Hb48V0g+FfuFvQOhyD2+u/S9nh3+PTM5+b1ayiI+q4gwvvjm/72SrhU8y3+APuOXNz0l3X++ML6VPodDoj3YQq49zwmdvdGp5j25Qlw+YfQkvttMnb72njw9a1QYPORWrzwWBK6+/lhSPsiOpb5uq9u+k2nivaVRlD6yl4s8S46bPpZTWj7V0so8nnwFPtYuJL6V9wW+2qdoPbq4z77cUGm93uniPanrCL9GDOA9KKtEvrP96DwMYwm9SvkKPJOlsTx5DM09Cz5lPi3SwDutHjG+NPIWPKoOzD01gzO+GABuPu2DJr1LIBM+EnXIPDAozT2PHs+9MoIcvlq1dz5UEti9NbhcPbrfPz5aeSq8L+aDPqZsDb6Eck49L4tyPZEzrr7ILAG9EhekPdnY9D3z4ga9R60vvn+uBT2GwxA9IgJYvdNnNz61pwW+B4NZPQkKVL3uHIw9S5F8viR27bzJerW87PaRPVzKYL2PzHm9/aW4vAA4LL76dDi8AVmOPe8BoL0G8xe+xkaJvQ9Ryr1YfhG+SJ6qPNTkvr3ygyk8EnSZvTA2ob1OyMq96STGPf4dEr413/m86jcHPa+AEj2ayQk+R/uxvGwqFj3pCYs91ebCvYrQbjx3HsW7p7MqvepaT76kQQS+2iU0vs/hRb02sgG+mvIIvmQXzT2O5T67YGCMvcrTgj0yXXe9NVpwvaRDnD0s+j0+SuqAPbvAWb3sw8c8aS1nvDudoj2aap89RH+QPGTtu7wFswS+ydwkPgKsHb1275e8LyrIvCyCcr0CdQu+K49HOgxGNz5J7P49fAzfvZd/0jwa8ae70tCXPRAd9jyz37u6dXZ9PRjvB75WAZo94J8Hvsmk9z18qQW94gmZvMj0Ej5TV3A8FX73vHZR7L2+U+U96P6PvY7LBbydCte8BSW9vXOO9D06vuW9wr0FPbrw0jwcBBM+YtqjvQQFQD6HkfM8veVsvP4rDT25Rki+tvDxPGmZS7zi41c9kWJfPfNpGT4q7wG98GLZOHNO3rzxx4O7mTj0uyzWCj015JG90EGNPZSmy7wHHyu9VK7APZ7Ze71ZDWc99drsvas+aL0+lrG9/oDXPaR9Fz27fgE9O/g0PT4KnT3e3b69boJkPAkIAj1H5u692wiZPcqAuz20wA+947DGvA5uWLt1Uz+9z9/+PB6CZr3Rk6K9bCeaPFsw2bvbDfM9seBBPpEqIj0G8rS98akDvdp1mT3i1Di+KZYBvTg/qLwWZas9nyuQvb4FXLzpqM89wC3vvEyudj0+O4w8vcMhviWZQL1tcFo8AagwPol4Jr2uyYe9fItFve7SeD0olOK9pZkUvrlumL1bJYA9mGqoPTZaurx2CBM9tuqlPXId5DzkfoO9z+brPDctmz0Dnsu9HKXfu6LsDb6O3Zs8jzWgvKMo9bwZRe670+nGPeYsfbxgj7e9mekNPXByzj1Gbh+84NCAvZClX71CtoO8xRqaPLe6vToe08e9douPvafAoT2twPu9LrSDPC1bNL3A9Ok9HuTgPKUhLL0AiIM9yBD8vWixDzxIh1E9vOq2vfae1jyXRJY97NpZOxWKXLte3RU9g22APR5l7L2TqsC8Ge2IPd3LwjzyBaI8asMNvZOWcbz3qFY9UA0Bvb8Wpr2oz408iSJ0PfTEpztuncY87kflu1aMbzy5PLG99wNpvR85Dz4alMW9fhs3PWvDrL20UUE+9KVZvcfaOT10VCK9r5pGvbFOpDwSMjW+0GERvb03bj1VGv+5YS6bvQwZ+L32Y/o8BYPGPWP9aLw7CBM8g98LPtNBob2oxBo+2v6SPd5pFLyKMJM9VprRvWBmtjtoH0M8f7QMPbJizD2Q4LY9JitgPaN42r2A8Aq+BEkmvB6E0b3v2C89HvaIvUtzQ70pI/c7zoQQPrhk+D1XJgu+0LcLPU5ceL0tRRu84xCCvYi+yjrSEFA9/IhOPetMMj1SWQY+fvogvYDw+jw6tLC9oTWivRIIZD5s8Nk902lGvaAjO7tCMqu8nngsvWEPoj13i3A9qvuHvH2Whz3EaNO7agJivZVmRj37EjY9dcB1vD4KrryL4/k8vLYBvr7b6jwPOpI9RnSYPXCo670RSkw9PZeXvYs0tz1FhXm9q6+hPYtxpj0xlc48nHA1PbuYKb5Kplw+62RzvbbxWT5/m7+8LQeWPHoG4D0SF7U9KXnbOWc2IL6toQ+9fd1uvi6BTD12YhS9ACfpPBljaz1pRPM9JgIlPH1wrT3/ag4+hSRkPSq547yaEuK90TucvV8KXT15Chy91dnvvaJQVL3nxQy5Ka/LvH3e0z2QeB29CxQ5PYOYWb1q4a4+wDA4PrOtM7xr3YO+tAqWPpU02z3z8wU+odeCvYpHkb06zps6ZcJXPKwC4T3U8o493NyGu5wDUT3MxSu+Pn4TvtBh3L0QGn29zfbFPSWY/L2E5wY+cKzhPEulvLrDQ6y8ScdlPetNID0xOpA9CvJGve1NBj4FZTC+VpD1vTXZ+L3TIeQ95UljvpLEUjxrB0q9uWDOPSzBxL1MRyo8wbxTvXOhrrybOTO8l1h2vk63Db6klpM9JXHaPd+Kw7yuwrk8arxGvs0ehr3jzxg71jEgPHC8wr2/hSk8r3CtvM81Hr2hUAC9BnUBPEfxPT7a5xC9q5xpPrCcV72SAF4+Ed1HPhtMFD1WfiY7BC3fPKTgqjxfcsk9196HvXdDsD0YPTC9ol6ivYkGy7wjfGC9iZnxvNvcBrxvI6u8gjWLvat3eT0iI5o9fo+FPdH7Nz54zWQ9Ie48vY0T6z3/1/S8o1zXPbNiOr3dCS0+lVVZPNdEGT78Iyq9DAYrObuU/bx/+/48fywJO93vK7vgUU68Q8oRPsiczLyJYus8EICjPQIKtrxiXPA8pgZlvVjV5D3EeCE+Y39IPWo7vL1cHCg94w8TvHv4AL2ka9q8Rh6RvHugCj0bulO9TEnCvO341b1H/d09f3PNvCEh9T0UZGo+fxydPViXlr0dbnG+5tPhPG5rMD34w00+lf4cPtSAwz3tZDQ+p6eCPejjlb4fFKi98tQhPWc6w73R7qK9uPqivZhGdj2AUNW9UTj6vWNr2D3T07s86FEUPggPv72Aa/+8NgeKO/Fb4L0kg4W9bPBVPY/l6r3zLPQ9ayiLvMvYy7u5iCQ+VIT4vMG0r7w91iq9TcMLPn+lRb0EnhW9plKdvpM7pT3lrIC8iqeovD0U+r1/E9G93RmpvYc+JL18+TA+hT1sPRm4/Lv0Nes84eYDO2qRhL3ECIc8zwKOvHx51j2eSU+92UYBPhCsQD31C6q9f7vBPfgq1Dw2W7K8VhcavT4+I74sh3u8YSsbvshrUT3GzCO+0+CdPVVppL2Pvvs9fH51vRZaCT6EKaW9z3gPPpYi5r05iZC8Pxkevdx4ND40eXS9SRx3vXszXj0stVK9g7pwPVPVEr5WPPU8eyqOvX6cWr0dFCm9wlkGvtFW/T0FIwa92cRHO4a+Sz2gJ5A9hhvZvec1kz3RlKW86BAEPbVHGryq4vm96gt5u18bR7wJZjy9Tc0TPGs/9T3OzWw7R9ZPPBMIOT1ugZc9/Q39vBlPlr0Nb9W9tje/PGHwery5ZQi+AgquvGCT272Ro7K9dWiivLfWKb6Jfu29/gCDPfPBVj1qJ7e85kRfPZKLGr28Wcq8DBeMuv8pfDyxJoG88ZkpPkHdkDsV/eK6J1s3PRJ3tT3HsAC+BbgYutGfib2wseG73a+PPQ5YXr3peYc8HEwBPnnHCL3AU9+8soqSPawWKz6pavW90k/XPY4+hz3/L/k9gPOOvY1P+70LN1q9e6QHPWFDbrx0kEi7z25tPrLYxT2pQTw8RTsDvgF2x7sKIb49sxfGPTRh0r0S+ne8fW+APaBjyztDzdi9fJz4PEzMFDyzanM93VxIvWjWbb0iN2S8R8EMPVcZYL22Fv49+J4bPFmtBr3Peou8pKd9vS2ti7q3IIW90eW7PW6PAr5oyNm9OGADPogy8TuHcHY8lUzvPHezeT3SNTU90srGvDc4Yb1YrjK+2tkHvMT5ZDvNglk+HcgevfV+lr3oEug8atiovSxYWr2ONH+7nhdHPQxT1jzpmw89lyYOPrb7VL0uc4i7uLmQvYdVWD2ZUE4+ZnhePeUz8jxl2AU9FNllvZqhLj4L8dk7b8WsveSjjjz1Itu9IffHvf6u8TxSc2A+PYJzvMvw8r1K8rY9Gp6su/2LD74Z8K49hU5pvNBw5D2SM5c9fO4bPYcBpbwazjI++80cPugGg71zC+m8Fho4PvY+oD2Clo89dwAivodwKD0jTJY+xZh0Pji4Kr50vDU9gIHeu52/C73w8eG8jf2ZPfGTMTwFr7a+AGLKvEW5Cj4hfsa9/j1Ovg27ir0lcxW80Rl0vhGBfL6Uzou9z7YLvbdv1b2Jdo4+7d/+vUGo1T3zPmA+6crXvVpZ2D3cEW8+5hiBvlMXWz6fv3u+FvupvrQXs7wDnKY8clQJvoNrB73sinm9DKEGPqJjBL/jO5k89DeCvkJZRL3HLk69NvRcPQBqEL609C8+90XrPSe8Nb3eEJa+WlY3PWq9Urw0OZ6+Gc6rPXZIvT0qtjQ+nTIBPagusru/JR0+POyZvsmPAT0LDm49mnhRv8PATT0b5rY9RCBKPrMOgrxGWz09ofTdvQyyqz01+he+hNr/vNb7g75SNSI+N8cgvi3c1D4Aq/M8EAcQPdxFg72B1CA9TB1vPbX3uD69zoS9vp+TvrGOHj16fBe+HgacvVNVl72okR8+iw4BPpv52L6iGrM8ZUpBPg0vsL3DF8k9ZJBDvkpNwT1otoc8MC8AOlHukjziYQY+MFymvkEoID61HRM9cpWaPe2HJT6bdnU+tLnsvcV/T73JASQ+gzuqvTSLjz6idn2+rMKLvUb6tr4kjLE9VduYvrtViD2Xa7m9sEwHvWtN2z55yve9G5oAPtFiWL19TX88IBjzvR60yb2pYPM9AjUrPbrZXT55ppu8vpQAPlMehz6oTB29CfZpPv++k730TSg+nwzGvvE7Oj3h+hG+4hdCvscnKruJcxM+xSQuvRCP87zjLpU9XECOvQzYKD59Bvo83n07v4O3UL0GbRw+gZukPiU8rLyhzDE66+hyPiHu/D1GwxK+9HusvZ6Aq72o5Xc+URN0PmmraT0+W6++o+vWu0Nlvb2PbBe9H9vrPJSA8L0t+qS9T8okPvFqjL2pgIS+QXMVvyUkz7yRUA++2BwvPlKjp73Ro7W9YDZFPmW8qD2MiYi8GjwMPgFEb714SKU98G/KvHnt674/pny9m1KKPVS8476Xl5e9GKwEvpMjib0K+Pq791yQPX6wsz2SoaG9+UYNPuaTtDy/qYK9N4+zPb9qJr80DaO9PX2IvGLHnbyzA7U9Gd5kPpwZFz3+Vds9er53vg+lGL9mDLe6yjrgvn0NOL3k01c9bHsxPlX0bDwgboS7Vk2aPN7wAr5N0a2+4OOLPhD0yL4vgjo++pGzPYOBQD2Fl529iv9oPubgFz6J1JS9e1ATPuX1DL42+OI9rEGLPeCjID2QlAW9CCNlPXDIXDyovNK+CeykPfI5hj2mHSG9sy3Hvue9cj264DG8amvnvHAXi77UVPu7DjxIPu8CKryulDO+pWsJvnOgD7wZd1y9W3KNPpwnnLwtpr89rW12vrB8Or1hvTY+P6SMPmXIXjvqw6m9pYNTvPM25L3fIhw8TbKCPYkI8T1B8c+9cvDCPB7OWrz1MCK+fx9SvjRFSj27QDO9O2F9vb5p572Sc08++ilKvdZMJz6ukXU+1mmYvrDWDD02gK48FO3+veOxw7xjyNC8iFi1PU7N3T38WE09ewSCvWusoD2FK7c+xu4xvLpqUj7Iz929QZ2RPRsGnL2svqs81tu1vgGULr5gTCw+1NMuvloYo72AwVU9qUzCvb2KtLyTJQO9mQlov1pIHj6kbvi8YNQLPWtdL79uvX89CXXRu8xKwT78tam9oC4HPboFqL7cugA+1sWevDbR3z09Bhw+kV39vWWC6ryQR0A9+ITAvcUgzj0b3sA+W/wFvczQn7wUtyM+Ojb+vLYXtb2oCMe9c5ZBO5xMTD6ci4Q+ulIuvs6EJT2nhMY99bAmvv2+nT5ItaQ9LOJcPgDxqr2GGQC+EttwvtQ7zDz/yc6+FgMmvmMFhLwC2HO9Hvo3vhHvJL3qtwA+YNMfPneiez1j7am8sXKmvQ0l+j7atoC9XmX8PVxiBT8KnRY9REUmPi464L2Fc5O9PDaMPYeWhD7SaA8+u6oePpXsyb0ZNUw+e0yuPbhRL7/GT729rljxvqjDnr06vUm+hue/PjLQRr1th/i9WkEvvdfMmL3Sdiu+B3xFPotLzL0M6JQ9pR+APeqc/T2DUDm8rV3EvgBxDT4QMCQ+pzoEPcxcV77t4cu86wKiPP8bKz4eahu+CFcJvmR4k73G8Zo9hlrCPDJb/L36sm69CfWmvaS6mr08tyK8OGEEPQGSiz3QyDu9qxCyPS6Gab8ZGNM9ue4zvTWOEr3sn6k8QghGPqXxVr2K8m0+nWqYPbitFz5N4Yw+ZNiuPnPCiD6F3ys9iiLFPSIvhL5j9JY9sDLQPHt4/73MlMi9ZlOgPMLpJL4oOp8+uFUlvnyQNDw/jG+97Q+mvbVopL0HHxg+0SzxvKe5dD1f0X4+lWaVPntJ6rwm+9M9RFMSPrP3M786G/+8bpS/u1B1az4HvoS/5TfovWEEMz0TW5c+2jwkvlMFyzwxnVy+k9ddvWTSgLwxKWc9ETqAPQLDWz76mC+84D/4PaZN0L7JB5C9RW/vvc7BiLuq2qu+GizJPKxW9T3VI+Q9qBtavl/gmT1RCiq80/nQPcZaDz2vvcc81RTLvZ4kgj38gru+2EokPeEDCz70Pxy+5RU7PttlZL3M24e+nS1vPS+8qb06ygC+9mSBvciAAb2YuZc+OWgXPgxlhr4L1g49e1Lyu0cNfz1Wcgo+OMWUPcUZJD6/rSg9q8yDvPnktLsdR9y8O/Mpvh2eZb5CJ0o8i8DtvR+JDL7lCMa9ySOlvk9n+T0dKEI+V7LFPXVPgrxbVtQ9JDVXvu6ZODscp4k+iIg3PokKAT5jzM49v9iNPcQrtbxdcfY9Up4uvVR6Db1x2va9x/nxvWSrE7+2JBa9t5+evZl9fr7ifuM96w+JPnY+67wSL9M9AiocvVfyOD0n6Aq+tyfkPdmkrLwunQY9Z/CyPq9wkD1WseG7SzgUvvDAuj2ADge9DvF0va1b+L1uC2k+Nh0aPTbUD77QviU+lCZPPhWVSz5dfyc9nKG5vqTrIj3NpF4+ju1rvlkmNz7s1Z47qCPcveSPzD44ncS9LUTsPAbsCr6JZzo9GmeavXnn+bu8zSu+ATMDvPJuGD4t8oQ+uxdyvfISpz2FgNe9FxuBvNI0oj2OQiy+YhYovawYkD0VaXi+VIOAPiIGkb6o6rW+4Uk3PSazYT3sFjI+IB1DPDC7rD0Pkv08QotyPeBheT23XWe+ewMEvwSWcb78c6e+TsyfPXp8Gz4a1v49QLNnvbFjGr4kRx6/Hs8bPnVyCb5j9Ao9mSGcPSlcST2stYM9g94RPQkdwT1QDNW+6xk0vUFK/L3YbOG+RvEBvkIGGT6wGfq8R6kuvY5ETLwSzS69PNE7PbUF/70LJcG9JmpJvU2mzz2Q6QO+TZPsPCpZeT21URM9yI0FvVXr6b344FY9kG/0vA3BDT6QiQm+s7pOPZqSST61VkU9aKmfPQqrkT0fnJS7C35MPZO1Gb4xRHE+QQVlu1AzG74ucie+Oww5PdtNYb1UzUW+oH4BvY0dtz2s18q9P1WYPkXDDL6US4I99j/rvfId4roxgW8+rvcgPlFFIL+IKwY9ZznvveoLTr4YL4c8ygdhu9RXE75n54C92KWtvQ3LzL63MAY+WRpEvOJ11L5HUW48KKtSvr/M5z0a1IK98LrpPek83b05R4U+GR0oPr5asr59THG9CXxWvSgkDT4GkYO+28nGvYneCb3WiS6/lQcEPTJ7hb6QuzG9ExKXPX+bZL6Bn9g9HOpLPod+lTylxmM8sMKzvVAP3z0KU789+XlzPtwIhD2tpsQ9CIP/vjhpIL5K/Ra+mwaGPoi42z1o3H09kxZcPrXFhDxlK7E9yg+tvaB+r73NI3G9a7YWPrkiY77NY0U+dr+vPZYpQz56yVK+4uM3vtqrOL6IUNs9/QUAvjMQKLsbVQq9NjG8O+rrer1mDNa9epHDPsNAHr66qq89itZuPTzj8b15apY9A+MgPpFkRL1+Wqs9JyPBvuCFKT6GGuK+LctNO80YFT3DEZY9BD6Mvm94bL0hrTY+5ODpvafnmz0A5YM8uLehO35GMT1DjtS+EDEPvgahobwmc3c9X8s7vZNDVD7RBz29qu/KvkYfkj1og829hn7cPXMaET7mxqa+JIOLveSyNr/9wIo+U/23vuL2VT5COke9aXwBPaLfAL5xZTw+xIVuPe2S170rR10+BnrQvSHXez1EJbg9KYapvrwRUb6VuAE+s3efPeo9sz2YqV8+zSIBv5ZHWr6T7aW+Gm5PPtyFrz74yq89e1BPvnKEoT54fww9XDevPYsih7pkXhI+dpwQP7DAEj1u9py9HPIWvvRlrT3p1bO+yLufvvbErT5KCp++H3nIvtoFLT5ZPCs9GOR7vkeWnD7PPbA+s4GbPb+fx73dgQw9hJZIvl2TgL0S7Ig+G5WzPYpm/b4wnFG+nb4PO5ynxTyiEGU+/I7AvWXMhz3VfR0+sFwSvWZrxz479g68gpW1vVcp2zzoEls+RKWMvkgNqT52eXI8mdPrOyA0QTwUxCE+4niVPF9X+b3qXES8ZW7ZvVIzFT0X0yG9eAkxPZIrlD6YLSG/mF9CPhhvLDxxWY2+7oqAPSb8Pj45YVQ+nGl9PMJ0Er5BuqQ84DBjOmq9Qz0QgyQ+YC2WvcVHhj3dasq9Dfh8vV1beL7bGQq+0BhevisKrb2Hz1W9/6O8PYU72DwvjP+9ojU8PhjwaT4QL4s93LNWPoMeOryXSiA9hSMOuqdDDryKSe296ve8u/exNL7U7qi925LxvF57nbtw6CK+UNWOPYufCj2/zLe9kvaJPmzbcr0hk249HSmcvVt2Nb5SzBm9YmlevQMNg76DPpi+6tR7vprh0jysjQi+4y9JPs+JB75FZIY9ZGfBvDpaNb2zqY85QK6LvAJBoD0C91G790c2vY8E3z0mZgi9BGqtPPBY07zsoAg+oesXPtUKRrywv329mqlEvo9gIz67hye92v6fvWbWmL03SGW9oSoJvrBOur4Y+WU+WntGPpXayb26eiQ+9luoPQOv2j3hN808yBgbPoG9Nzwib/q9BQ30PZCvMD3WtXc+fTPGPG9mnT3tu4u9jgCIPYgFpDzO1hu9Fa75Pd+9mT3GWK89W5KhPfsXtD1XyWy9tP2evBsbm71oGjk+kOcCvdYwH714FyM+jdYcvgZX8D1TTQi9wWnovJ6yvD1jJlU8uQnBPMOCDD0Zr3c9ITGGvJN7pT3hnjO83keJvNyyeb0yXi46s+YUvpMUWD2OAnK9mJQcPdqvUz0ZXOS8O4SwvHcBJz4ViNE9ZuMyvbtU17x07uY8ync1PUnfVb2hOwM+WNAwvdC3xzwSXgI+ngLjvXDj+L2gphI+PZgfPbLspb29Q6C94DuXPaZOMj04KIG74P0PvhQQLz0FiAw9vW6jvV0IqT2hhGc8Sbf9vIVmGb11hzw97gQavl++jL4wbEO9EvT/PB9haj0AI/a9PQj4PWwWZzxH4eQ8z/MPPd6IHb7xPAS9isbCvOdLSbx9uHy97AF8vc84Fr6OFtQ816dZvdTCpr2xLqS86KbivdGYljwCcQw+DOTjPb68nr4BqYI8ETS/vfuV2b24dzW9ZpqmunCTv71B4Ru+eoYmPfi0Pr33gia9GNaOvMY6Bb2V1GK9kc/jPfi8tLwdXcK9AFs8PbSzgr3nrn29j10vPFGQWDwiNoa93LACvuFtDL4LgZ09oyKHPdlSVr583pG9C02BPbk+XzsdKqq98EpdPTtM/r1orSm+60+mPUWCCb200yY9WZhJvb0/Jj6y/mk92M2avFIaxT2WfK+9NNCcPMehFj26k9E8scgjPM9vab03l/c8SvQPPUOZ4bwAFMi9zWO5PHSkFT7Cb2e9UsKBPWzK1zxCxYs9fGgsPALcIr5hQWs+ULGovVeJtDznhxm+9UmgPZ1cvL2qOXm9UjPcPSIq573vOQE+rdRQvkDcg73v/sS9DKjrvXhyDb7mPA2+dsLYPRNxKb0OYWs9k8qovnj+mD3lvFa+raInPlO1sD2n7tY9kCGWPeQWS73C45K8V/aevaNmdL1sgwE+5rEqPme0PD16mZu897XIvZE3yD0WptO9WsYJPjJo2by3B7W8ILvIPOirsj2lFGA8L6/ZPesAqT0q6kO+mqnbveFXBr70yeA9Pu2ePOK/erxpgeQ9HDSEPMm9F71Gl2A9CXIlvr8mirwNv6M+YANsPADW070zn/c9+IWUOxHzA74D1ww91w8ZPSrKeD0NW1U93UAXvavE0jzLtmU+WsIRvEXxur0ip4g8PTNtPYp0c76Dn0I9XmKbPOsymz35ETW+leIRPhJ5+b1phQ09Q2wrPBa8Jz1Hi0k+i8qAPO+xnzy3peG92sYJPujocj1mMLw9LJGMuo+/Pj62tcg9Pcb3PYz3bry/jBC+DMwYPA2eBb5Z2uO941ecPX6MOj6V7969NccCPKnYwT1nmZc9xlyFPm5Q5LxBmWo9kUHWvUnemr3KiFO9u313PRUVmr3ctU49Y0+2vXXVub3w7G88uKakvHtbzLxMKPI5ZjVrPo3EKT5wZre8IHAfvm47bz2uj3i8YeMdvWecRr5dJd88JP1FPRTZh72PQm0+482iunjd4L068wg+bG+UvI22ZL6p4q+9U8wFPeu06DsSUhm+oP4BPhzxoL1jCRI9R0gSvjoSLz1VC4I9oOWSvQK+8b2vhD0+DYEoPpgQFLzSukq+AX9gPhBAU75W+wk90ZkLvk0YiT0o5Pe8lAVZPF2j0zyHoBE+70AMvWvASr7XtzC9YI2xOzKd+Tyjik899aV1PStupD3xBSy8se6FvY8Qur2vWNe8W71OPo4vsLwXH9K9BYywvZ3ljj6+W2Y9nk0avS7J7z42JIW8lP2gPbN34z2Ws5w9283wvGMN673mg7M8sb/LPJQjlD6pUPQ9D06Vvj66E730uyQ+sB24vYiV3D0BQT8+7U+PvSkPCr7NXFo+du+ZPfrcNj4HPI0+udUQvh8YCj0e+lc+4xycPTQenrz1S0a9LKExPhEz/DxrLoA+K/1WvRna8b0KGbw9LlDoPZxtUr7bLwW+ZmiRPpjDDj7QxJM9IxJEvR/EDz6Jbgu9dl5dPecZlLx81OE7F6W7PdkG8jxROLg9L2VIPnutfL3zdzU+MNRIvrGHxjtYGRa8Xu9mvD0qpj1bCYa8xjaMPTzYBL4VYB4+R997PuohQbyKpUa9tF01vu9Kz71P47E9QocAPamyDj7rM409cmK+PdwMTz20BUK+/cvZu0DvoDvh7wY8IwapvR+2eL26OwI+xD0QPFZukrt6vJo9F5vXPLCf+z2oNM+9pNNFvEzOZDxCQb28+Q+aPBISZT7T3wC+A120PSo4N7wcere9thwHPQOo2bxyAFy9BJxovCmvZL0aBDY+/6lePXd/I74HhlS9yRjqPGFi270+ZAG+ur20vBAyCr2uhnw89d49Ps0xcT0bNnu9fNHRPf8qsz0OYY+9q5ADvkfud71mKxU+v6VgvQxybz3BI1K9IsWFPciMLT2Oaj897qc7PD5zKb7KP+a9DavSPR8Mtbytyc09Bakvvtpcej0J28W97KX0Per+073D0UM97GHwvMv2ND5tqMS9XburvVR6mr4dAtA+Sw+hvU4T5r362LE9+0FCvuw75j0Z4wu+pZ4lPdqoZb2x/Wu9zyurvfjkFb5S29c9v3TOvR4/lT353tK9zQLdvPw0Ab4486Q9p95/vCVd/T08DzO91VcxvSCrFL004IS8GUPwusgc7j0j6pg9/jV1PdLwv7vX6368CHRfPZ6f3L01gda8diyPPEZpeD0XEFc9LS5ovqz5aD1i4hE+0VdZPIJabL1sYvu96+kHvsei2DzlUxk97j/huqTvLj0aNwG6wTuFvIwO3zta84i9LBSXPYSuNj7zNY69UD8KvRpkOz1RQzC6ImskvrDF6zxtkLo9PXTcO4Ugvz2Pysq8N9NUPTjbAT7iNJc9xO2jvOIw1T2e6Kw9ZMAavu1GTTv2O+48Rz6DPbpqAr4B9qI9qF1Ovk51Jz5NLUC+JFHWPTDpjj6PEkg9wdqmuytLh70ogYK9q+NmPqKU9j0Mih0974k3vfc6Jz3teZA9W4pAvrxXnb1RqNU8TfwGvdzhgL4DBOG8BA3hPfBXDb5dxy8+xtwcPlpyCLyp+pQ+Ud6uvc2+V70YMRw9XI7DPBRJVr4lvp49z5egPZa6rz3FQZA9uYe6Pb5LYjwrxcs9ZHlSvRa++jwHWE++FyAPvdFPNT5a5VS9NictvrtLgL2TUHa9xTfZvZUQ8LxrYae94Er4PDDpiT0l7Z89BIRRPTyQ6T5ycR+9E5n/vTzZ0b1TWgY9Q7PqPREODrxwH7Y9vCYxveOoKz72jjw93GuKvZQZ07wq/pS9YZJbvnsmZL2RfwE+MAA4Pnx6A74RiOC985Cwvb+rF73dH4G+kXsEPnbIVT4xIdU9sTWKPVN6Hz0OYwO/gx0LPnW6mj50F0i+M1oAvhu7az6MCi+9tSE1venbM75x99k+yfO/PgdbNz7r8IC+ie4iPgXa4T0kP8I6mOyRPrBcHD7CwBg+Rpgjvq1DYr4cqO8+nUwrPncCor7rfnS+052cPitljb4tN5C+l0+yPQptFT32nre+S2KRPkkOVL0CS12+XZ9xu08/er3HyEI95HKfPaPskT3150U+yFxtvxFLOL6ph6E+Z1MJvkWwd75HNF2+t3wDvvxAhD6IWyK/OZLvPe9Rz75jCzO+69YrvVADEj0kNo++7fTbPhrbgT4ysaO91gFBvoG9kT5rmbc8cbOovoNPGD6mVPw+G9e+PlU8hb3EL5K8Mw4NPQRSML/y1Sg+II2qPAFqI79y834+SriTPsW28T67gg2969i6PlW9Qb5jIVo+hgnIvtr0o74fQiw+NZ4+PjtqXb4ZPmw+sjcQPogYh77tSIg+LRmivPE1Hz6HoTs+2zkVPBu/0r5hxWa+QsqGviYfob4KYPS9aHbMPuiiTT4Xpfa+cI7RPKOf2TlZq+Y73AqePgRCPb5+yZg9jyZQPpESrLzvTLe9X7rxPevDgb5vFQK7zjs5PGJEbb3p14w+814HPxqy9b3pfeq91B0PPqt65D0FLBw+AWDgvQ7NKr5L/fq+Ob3KPsf6Ib9f/pa8jyVJve9nXDzDFUY/yxASvQqIeT39YBK+aTIBvs70mL7/NLy9tKr9PM8HEj6yFz0+gn5+PlYB7D0FV5k+dW+AvjbYvD6JLqU8w8+mvXpKA75SGPq9YFHTO3nJ4L11DBa+/GuQPjgLdr7Jks89Z9AOPWuxDT7vsZc+i3EoPpp9o788BTy+lLV7PiBvEj1BDD+9DR/CPYQVFb7P/BA+6Q01vsRWCL6HT1M8lUp6PvWuQT87C/S92STTvlBKSj7qOUE+psDbPVUkfT4LxZY9xUiavqXNQT4Jc6+9lUu7vZbMLb7bGPG+D4Xfvb1Kwz4ScgS/wqKwviV6uj4q9q29BiKBvYt93D4VAue9O0QrvFiirL7MHHu/n7sLvpowhb72qhi+9JxJPLzjGb/jABk9+EvoPR4DK750Phg+bdREvrDktT4Qz3c+zH0LvsDVEL6M1yS/Tj1QvpTjnL0sOZu+B0d+PagDIj/9QBc+o2qoPf41LTwhjui+XPH4vP8AQL+5sYG9yCJ8Pq9mBD4R2bC9plngPe9mozzMPze/FjgBPTeXJz+Z3dW+m9XJPIdTgjzAlIk+BAUAvjglnT58S4Y+VBUUvtQTgz05Tie+B9shPbPl3D2VBBC+uolrval8HT6nK4++ogRdPW2ER72u1Gc+N4uYvXf5/r6TCAO/gDa/PAAUl7zkwu48Renjvvjcqz6KFR69uHvmvinysL7dkhU9KTeNvKA3XD6OZ7e9uPY6PSFDN741oX++tw9sPsN0MjxOl6C97QaOvphZY73d9jO+6aTCOq4+0D29mxG9r2QhvuCQzj4RXww+rTEav5W3Vz4Q0YM9gtn1PXdpZz7HyiG+MruTPmm4ALzmK6Q9+QpVPtT/Ar/iJjY+DGrmPQAbyrwdPce9GrPfPRazJz79mTA+mVRoPTK+rr0IdFE+r/U8PkrrIz5DZpY+4HuGvRzwWz68lbc9UUg0Pmb7RL8BDJq9yT+iPunDyL0oWb89oZwFvb+GKz6sVqI9u7zCvd/rVb8Fi1Y+QPR1PkSTs73YlIS/76/EPaRs3z20P50+y0aTvpCTL74FXBW/Ia4gPeUcb774vPi7Q0hsPX/hib5Zup49ChSyOtXhI71Ywig+2XTNPm2TrTwFNVW+ODuiPvpGDz1Lkze+SYyNvl5SKj1TnoE+mDhuPrAJML4R5hW86AtRPXq2IL6wThE/AMpyPgTpWj58RrI8gi9fvRXNdb1owcS6J82FvtGRCL6UB52+vvcgvcS2ir40Q4c+uzNJPjstUj52HkI9VH3qvU/VAj0NV00+ma2GO4oKhz7JPy8/srm7OXApgj7SSYu9AMGJPQBqZj6nyG47PUP6vOnbNT6l8Sc7xDhoPqxmgj4fP/C+eiiyvVs9kr5tUvC9j/3oPd2dwT7Q5TG91BM8v9vyhz1GEw2+W/oIvswOij7+75K+gMqQvJBQOT6Lv9i881h1vVV7TL9YCAc+6LwVP+7NSj4BUsq6aPUfPTIaI76cI0o+ybAFvih6D75qu/s9HxFkvWvwuDz3eyO+7gDnuyuTK72sORC9d6GcPQIQPb7ru4E+9MsuvpmilT6LyAi/KwZyPf9lJT5MZQM9/03uPchckb0l0Tq+h6iwPmgJUr6q6gk970I7P3tfqT4J5qU+jsB/PmI6Dz+M+zY+Fxp1PawwYD7xg2i+tWmRvcFgRb66CZI+h+cwPjwyMr5Bv3A9WkijuX39Cb5Lgic+8ORYPoQwPj7OKMM97VXJvdCVVz7tUhU+75DUPN24JL25Bi6/X8zLPa1zVrx4ZRo8lTK6v7GfCz7EnDs9tvKSPvE0Db7MZug9EDQ5v00Dlb0IDxo+uDTOPYXO+jx3CIM+uP0YPdHpjz7bnb2+isq2vWII/jyZmT8+h3GWvgIR5bxf6mg96i33vHcERz2Acwq+L2t5PbelST5d5Jw+b6UpPq+SET7FFRc8atA7vzqm6j0b/iA+dmatvo+oRj6D/PI+fX0fvdeAAj5cZ2y+Q8OcPeB8ED5gIUY8QBxYPlBUm7027YQ8Z4xnPO8idz2rj4u+/ZqGPrUsw701e5s+QzAQPm1Gnb2/N4W9gVsyvnh2bT3oRle9U+YuvozFlLwLLEC+yeKyvjBFKL2BqJw9w4OIPvS/DD4LSKq9XnMZPs3CmL4rpFu+qm5iPhrjjj3hope+Xtt7Pecx6T0c0hO+0I8IvsHH/DzM4My9aX6rvS0CP76OoSa/t9itPRdMEb5hMhu/rb6TPq6epL0pW009QohrvR3IyT2wAtG96OvBPbvPeLwtilQ+3PkGPpp/+T4MVg49yPvlPWr8s74FCc091sDmPRfmdb1jBRS+WUepPrF3cT0vUeW+HZI4vcCDID6Fwgk+O1usPZeiaz2kRRc+DwqQPbE8G74l3QQ/8mxKPvn67D1T7xw/ja+evWIAgD5x1N08IRN+vn+CGL7+2Qu+sqTKvrAOv71ZdSI/yuOuPhwU4L6ez5899aAmvlfmA76/YO+9ot4OvjI47T2FYhu9+LVZvmSMDT5vkIO/bkqBvkkzkz6K4f67gZlBPkCwzj0LaYI90N4ePrEb+D0jHyw+W7YtvlvxK79V3Re/wVvuvaF+Arsn8ZQ9vCHAPSbDq7ukp2C8Jr8CvwQu17w4D7K+96ZrPqiUrj6Jjjo+oMa1vRaEyT12dRw+3XRBvxxj0j2EXdk6NIc8v5BUsjv1H+w+zFApPmjBib3A7tI8/2a/PH8YiD1Z/Bs8X7CGvfbF77yagBQ+puvfvQUlGb4uXhi+EzSfvQp/0b0ZkC++FXG3PdCQ0brrS0c9eNXGvrBn37xsN00+aYv0PFRdjr7OwpW9Q/OyPtuPTT53pPa9dz1LvTTroj0/VH6+R06Hvh+iDz7s3Ue+TmFMvvX+FL1/y9A9Kr1avmOElD4eDEu+iOk5Pg1Jgb1AxTu+DGcvPhd0Cz2ODp2+GoBHvcFjF790fzy+/RbwPfN67b6GIQm+Bpvcvdz0nb1sjca+PrgpO2aXFr1WZB2/HHSyva6YSb60Bwk+eQ2ivfE5OT0WWoW9lew3PrfGjT7kHY2+UGsUvllxnb3FVqI+oMsMv+l2Ab4TgUe8itUSv/3OOb3cn+S+6B0FvU2iSL0joD6/vSPiPTX6Tj55nfg94pGnPc+YY76OJKg+MgqNuww1qj0Jwuq94u5QvkEy9L6znSy+Zx5Fvh5QPrzG4Vo9/KtAvqrahD7aEG09uqQcPqFcCb6HjaK+h6npPJ+o7z1eBk++veG4PlEE9b0u/sg9bpilvvcIkL3NAgC+hQ8/PqpchL7UOXq9Qpr1vabqez2Iysu9McSdPY9LTD5YlXy+LpnKPAzkTT3I9Va+8rmePRTX/71Oeo+9XDvgPRpjlr76+7M8W+1Sv9pEFD2GLNm909K6PuyT3758XMi9zfpGPvF6C72PFB0+rpCeOh1YBz5uUDY9LtYRv5KtqL3Vzus8rukBPiIICr7IyrM+HoMYPVRjhL7NPYc9VxcYv695PT5uGRc+ndqFvg/ngjwhLy6/3sCIPihWLr+YN5M+bXL2vKFdt70il6w9AQ6rPhDmjj54KyS+laQGvgrrmz5ugS+96C3kvgn1jLzcncS9K34ePCyEMT64/pK8dKRPv7FzgT2isge+EwAqvju7Nz7qrgC+2nIGPjU26b0kt4u7UuUMvUKM2DwXe9a99lpOvk9GrL6ef3++t4SIPqlUMT7SuZM9frt7Pp41lD1TFdq9I2VGPhg8IT5jlVw+jvOvvBcwGbx83au9WHTCvgemlL5akzU+dJ8DvjH/mD1VnOA9uJxCvbEaJ74LkBo+mP9XvXqmOjs3h1295sDlvKV0HD1aftE9zwwWvI2BNj7ipau9dyI1PUL/Mj4Vxms+ervCO+UmB75ipAg+sUKBPvYtrbzk7KW9oOwPvbVTJD711Qi9VT77vXKMDD4OGi0+v1wePhquGrshDZE+YhJkPnP2Xr3J+bU92H6AviBJWL5ftxa8YsmwvZGe1z2fSs87SSrvu7IPzryOB7c9APyjPe9t4b2MbSq9x/QivRqeSD0gfE4+HCLZPZmcDb1JuSg9k5GNPQhkhD3QyCC9SX/kvSdHrD0mWrc9rAbdPCgTq7xaB0A+vhPbPIRjsz2CPH69mVvjumcm/Lvsuqo9C4QKPIXxED1RZA29an5zPSBGLLxbhVq8mXaGPZMFhr1YpVq9bzufvYJnBz2XB5m9usrgvLCHCj3u4k096gs+u0agMz2DBQg90N7ouvhM3L2veBM+sOsovUrQlzw7RJE8gjVBvQXdsj1Rn/080GyDPDGVj72Sxaq92YA6vUh9aD3fbk89oxAAvogKZj39J7g8VcWQPTsah73bh2W9fhS/PA4c/LwlGjW9BlPJPLjKCTvOY309tyt2vHkmFb5jq4+9sbOAvecIxrwh0YI9aNynvUpd6jva1K49drkaPTFAtr34f2w9U1gCvnarxDzL9pc6yI0SPHGi1T0OhxI8kuIVvhYofDvCevq8z108vUl5zTwwKwo8KBwuPZJ/U7zyyAI+Od3ZPefzEz7UTA8+lzwgPQqRCD2rqM+9h1MlPdD41D0TKWq9mvRPPaHzDD7cA6k9Aatcvd7kUj0xUY+9yG+bPcISy7xu3Gc9fiDEu2p01b38Rds9sAuYPPeAFT46fck9Ko0Fvdj1ij0FsdG9i/xyvtG1hbt9f5k8lZfxvMxjmLw/M0c97KsUvdxeHD0KXKA8OUDFvfP32DxWdNY7DHu+PWD75zzXGiA87s79O+qCUL3OgQY9IaL2vEPmqD3EUjw9FF1pve8rlD1F+7Y8yIgcPT553j0QGRs8GJj5vDdAaL0kWag9fqmuPV+s+Lw8Q9k806BZPQXdpjseI4a8gnILu4/kUj3FKhg9Vj2CvBjpxDzAhzU9I7YjPhnnljz1iba9/CeEPYuBaTwL/628ygExvd/miT1HRk097IiUvZKqYj3e9bk7oAZ1PW51uz3KNK89dVSAvbLV6rwPmVW963L4u0rIQ73mthA++NPxPMLUl7wLqlG7DmtJvTnvvTwSiJ48iy0sPY6tozwbTs28jy/RPTgEUzxEmzE8bjYcvn8v6zxwkws9CudxPE6Ln72kjrc9DysPPUirAr1RoU27psMfPUseWr0Yj2O9TVqhvcCWbr0A7wm9Z/YHvPrrjz2pEvA7IdLyOxbfJT0gfpC9N7wJvmLVGDvrSoy9MMa6vZsZtbxQQUC8zMyhvbfJcT1MAii61ZiOPf4T3Lu8XAe+S9wAvO5ugrxS6A+8Z0aCvXOvGr2dStw7+ZelvXpV4j3P83u9RjabPHJkHL5DSVU9WlijvcBvd762WU0+bYfKOxz2mT0wseK990rxuV/Rjj3K8KU938covnVuIb0wwMo9sAY8vL+0Fj2zu2m9djjPPKBEMD6d+UW9J04gvtsBDL21jwg+FJ+7PGIGhruQs3m9jaA2vTwqA772Hpa9DPNWvuIwjj3G8yi9GBzCPVLRxLyFtJW90DHEPbtQG72LYQM9ZwgMPtEQEr12wSM+CSGHPn1Phb7vBCo+pF+uvW9Du70CFOW8JOzqvAM0Dr1BYUo+77eWuhjCJL6t0d29KbCGvYEpIrwzTug8QnmgvFwWmzz/tc09V5CSvOYBGD2LrLE6Zf/qu+ZsIr250tU9yL95vLr1Fr04ifW9IQcxvs5kUTygUEM+A38DPC5paD30dv48iKOUPeVwkD0aEMc7/oKNvciXKb1cGxI+Uch7ve1pqr1zXYU8tbgAPgUkAT4UZJo9OgCEvlIv2L21EyC9ZbYPvGv99L0Lu6E90SLVPWt12D0wAGE+S4/APfEmQD7t6Hw9bFqBPq5jYb2F0Yi8HmeqPXiTTb3f1Z68QCs3PsZRjz1X72w+xBIjvnNnTz2Eq409yX+CvdhGOj3dO0u8ojiNvofBh72Xo+y8I9+pPTmWjb65z/09/7+QvRk7Bz8jIY6+7gHYvKiK4T0Ft+C9Zan9PWZA6T2LOqc87VTovMjscj1IX629TjKLvsqvqjstzEc+hawdPgDH9TySsRK+tw7LPQxOH75InoK9YYl+u3Zjx7yg5mK9XNLKvCiOHj1tuxs+y0CeukVHLb4/dwq+nDsUPiyAFD6O0FU+2QVRvSXHgz3QVTm+P0gBPpnOJD1VPhw7iTUHvn2jHbvvV4e8SYSePUKSVj3pWSY8KUgAvfnvGLzPlmi99bVLvc0sMbyhKwO9xLbTNkSwzT1d0YY9Vi+3vLMmOz1fhxG9UuSePNTGSbtOj5S+RHhFPdBw9L3d6UG9VMqcPTsRpr3vIb49InhLO3qsET0u7788wD7RvQ0bEj0P2eE9tH2oPTSjm7uYumE8Z+elvRWREj6E73k9YQOLvNcgk71ImoS9yQDWvQHBCr6ROj+8JlMqvssbmDxxEwA8bKb0PawytjwrdGK8Wgonvm7kaTzvsQk+Ph4UPf0CjD3U7Vw9SbNQPdOIFbx4e42913RRPMJxHL05yw+9u0Jrvc1AODs+5pY9nPDNvbGlsj2dfne9OD6ovR3ynD0ZKQQ9KVPgvCjLjr3PR/a8Mv8Pvnu/Ir3vhYK9QV5svSj2n7zhKio9XM0NvtJAEL2V2xA8zOBTO6LjWj2d3xs8oBtqPH+Nlj2oyQK9Fls4vA96Q71THho8tVP/vclqBL1pc4i9vUmbvVFVu72E6ZS7+cUPvqlRFb0oxP08eAwwPHBbML3uZaS8iBbJPUWiab3A6CS++48OvfPqvz318Q2+y2tUvSN0Ar1/UQ0+I2kRPT2alD0zBlG91mlpPPux2TumK9c8ry7WvdJoAj2ynPe8caL8PMzkDb3FDBM+1y/IPVixmDwz2cG8BLBBvB8HJT1K0ie8LvuuPaDAjj0cWMw9dmyGvcHnKD0jKIo9LE2QvOFgXD0eCQo+5nmRPIgExj1hnqc8Xvc9PHCzsDwwyTm9omrdvLBOa7wlWAa9EVV6PBBcmz006Ye9+/S3POqjkL1StLI9pq/qPPjryT2iy+u8Cd1/vSUGXLyenyY+WJOBvnyDxTyU20o9EcH/PbFHZz0tBdw8c5wQvqyI0TxoLQQ9m3knO2Yza704mzO7qttePdt1AT7IgVI7aQmUvICagD200xA+EwipPPlCMbziACe97KE9PagrNzzWDRC9h6FnPR5Eoj3yOYA92ZLDPGKSxTyoXvs8ExxovLeZEzseNGc9NAUVPAF05bz15BW96Aulveiul7wB+ss8GffLvJOJ1bzGs22+mz0PPS2SHD50Jx+79CcEPVglRD1aVXs7nHgJPhrXVD3rRZg75ILzPeET0bzVxIm8WLWCvL1Oczu4PyS9wvDPuzzBv7xjPj89q+hfPZHYeb1TwCE8Ex4ZPUPeIr6q9CU9GkGePXQXxj1oRao8GrLsvReLJb25BqA9sXkYvYulCTxpF3i8BmzdPakmDD6HoAG+iYe2vVgggL61veE8HM7HvSy3Oj1LG6C9ZlWlvdIjFL4mkk++VGeOPW91uT1hgX+9UZcXPaaDWj6U1ak9XfCbvTEuBL56hyM9CV8uPnJSpLtSg+g9mgOqvAM2Ub0SDrS8s3vLvKKcpbzQWX491mmYPT/kID6xJZ09QhTuPUwv1rzoEQI9aTIKvhB9q7zgbyu94+EdvjLBED0ekDU9G/YPvpFiIj3NfnS80CtKPk6fdbxoqC6+o0TmvfjrIj1YgQ8+gDgIPQF4lzxNK8E8SMuhvTrfsrsXn1W65QKIOzLnDj4CawG+w8GrvMLd8r2xn6K8zrFFvruBRj3LNIE9eaImvn3fnTz4DMI8SqU0vdh8lD4vP8E8ADC5PS5SvL30qzg9aikFvitMhL2D5vU98ByavEHJNr13A/08+TPsPfngBD5IpVa+ISZmPuR3YT6alIG9Bv56PcpgmDyc8jO/etkhPVUdCL4j5pO+qeLIvOlShzqaLU0+WvE7vPOwSr2hpN69bMSwObcYrD2+gxK/Y4kVPVGTXL50MzA+LYInvQ5ieL3qYYA9PeJYPgY8Qb7pVko+O1eVPiRjsz1/yok8ZVkIveink73BXha9TZL1vL1YNz7LvJO+8uUwPvG8Kz5Y+ry+u5Bhvm+2Xj6YQs09KFPVPHixkLyGjwW+eaXWPBsITz4PDCQ+lGSivpbElTxOJak+59kZPtHTRz4PNAM+ZoeiPjh+mTwoUwy+Ji2yu1UKi72Iq/09sVcjOyleZD0xD62+FALvvFNoEj51uri9Tw2nPsIVBr0qbJY4sZKkuzRo/T2iAV++CW2uvp4kJrxCrGy+tcLcPRcpgr6lSAG+qF5HPS/Zp74GVWM+elZRvpFD0zyuWV0+WnwnPm4xrL4sUQw+dlcfvplnUD6Spto9LzqOPnPJkb23I7U9a6J5PVUgDT6n7l2+8/AsvDt5jz75xAe+SVbmO1N7WzylQ2Q+oohrvVMZIj2Gh6S9fyArvc1DGT4usQq9MFi9Pb1Jwzx3GaW+WR0MvfPaib7Bw5o861XfPceScr3VaKW8b3CYPU2GYD6LHsK+Y5/HPS7jqr7evXQ+WxVtvq2nmD0dFMe9nzEbvPl4GD1q3e09prhFvtsxu71BwpU+5FeRPRN11r1+UHU9+m6QvCF/U75A7Rg+SkOLvchCCL7Os1o+QjlDvaI65j109IY83VoGPiDmpD3sIbi9cjOOPia1s7wSrzS+rTXvPadAAD5YRRK+S56Lvdzo7z25MMi8mHyNvWC7fjzTvAa/xt59vcY8mL696HQ9wc2wvQwwp7wHNWY9PDXxvUPZgL2a8Tg+I1cCvhlTij0b/oG+N8bEPau0wTwTKuG9KnKuuh8ahr0r7Ys7kkW1vr2fMr5m8Le9FeY0PmzhX71YaKq+nY18vb1bvryWBDO+KaZ2PsQwQz2t+cw9wTU6PVtecjwWihY9DGnUPTmXND1Op8M92IOSvlQrSz7LRQo8O4Scvo9fJz2v7Ag+EhtlvvDrr7wXidW8NoMvvl23ZD4ZfSQ+GQ5yOuhOMz7QZIq8pYl6vkDIBj4oQ+g9nSd+Pm9yEL6xE9u9pqERvRmA2D1uSy6+i+X/vrItLj5j1v4+4yWxvStqFT6Mw1M8suAgPL/3Ir1ATTc9yocXPWJziL2O5SY9HnMDvxDwQLyC39k9OAf/vD1x+D3sJ9M9cWyWPcRWX74qdIg+FC49PbPlYL3l0Ao89ebtPWBHnLuPyF++do7fPVgJdr7Y0Rw+IKOzPNoMC74vFbK+MD7AvOscA77pqZW9Ds0kvm+rkbuc+na+aZ3quhKbcbzgbe89J8mJvHf7Pz3iYky9HW+RPYv2YD7QAoA9NAoiPgFimrzF8UQ+L2o1vW4pwz3Pp1O+6sz0PfV48Lwq37G6dAwUPic78Dz/0oy+sfyUPdmMnD7+SqW+fivBPYSpYr5LuOC+yy24PZUo5T0ZxjC8+mcKPCj8+T20SJC+mZqQPWyu0z3gotS9n9EcPoxAwz2hqBs9ibA+vSRtjb3pSVK+QpGwvTi2vL5TgB2+9ZwXPl+3YT6hSbm7pDxzPf5KiL2mZ0Q+7pRRPLXPAz3MSvi9BnmPvVjf4j1pqEa+hIIXPTCmFL5nARi/cVjmPcZu1r4IvwG+oSUhvvoZEL1BLB480dbwO7jtIj5vzSE+7X4SPZdFbb64qEm6wezoPQ760T1KWCG+ahlfvbuSUr4lVyI9pJ3lPSgm7L52tZm9+EBjvuJgI77qHge+C11du31mjr2QfNY9ntNqPYlyA77XRjy+qJwOvfCJxr39s1O+bYeDvgK8V77Gmxs9C9kQvdGY8bvDV/s9gTPPPTfbqL3GqSe8fQIkPlfpl77wH7a8WtqSvaFWZT3fyaY9x9NHuw1lsj1D5eI9J6eyvWV637trPS49ZtNEPsyQzr1Hvla+MFCiPU1cXr7c42S8CcrVPo37RT7g2Fs+PFONPK2nKj0qzho+3Q8rvy5Q0T5Pzm2/joouvsjAEL7WcJU9zMyIOljnKj7wR0w9/4mlvcGwcj0SEGo+tD4OPob6Cj1AMnM9zABuPV5ClD0fcQu+lWTwPRqMqr38DbS88BGGvh7tNb738W6+rIByvrzetj24eYU999bcPX/cjD1gM6o6bCsNvlLlVj4PDx2+pS8APdbDWD7Fpqw9J/OkOQXYDrz4LKq9mz2PvkTWBz5eLzW9c/WMPb9p5D3ZzxY+kctZPUyPeD7F98K8rzaJvX8MNTzbgUU8E16zvbcDUbxnxp++5gIXPtZyzj2Bt2I91m8LvtMKvr0EtEk+O8mXviTprT3iXTq8s3J9PbVlpbyQfIs9df48vij7dj1XDto7ZiZevVxsFD6RI8O8ByPnvEBHirycXwq8+XVNvyoHsrw/+AW+AGRGvcgX0r5TAuG7UhBsvVjHWj23hzU90xIUvn2bqT7N2168km0+PbxTAr6N2dC71Ly0vlywLD0xIiQ7XkyRvn6YhLwKn06+iReqvsYV+DxzVPI9hO7vPfbFfD0OrDu+yBD5vYbpvz2jEc29lvOXPeASnz0BFaA85/kYvhn54L6CRIS9kR50PbKTsT1hCqe+6fhGvUuT175o2ay99TmivZHzTz3E2pi8bhQRPXGPFT5sAys9mX90vlqokD0AFVi+KQenPQJM1b1l0oI68iXDPCLkHj52wOQ9D7eOPg7LkzyTZ768GYI6vnGkzrvDxaC7IOqpPZAeOz1x3mK+22ZiPfOFuD1asmI+oiUgPsLdoT2YToC+amYhPgP0hj7VlCy9nQ0vPbVsGz1bqq29WbLjPTgp7z0FizU94c8kPZhOkr52twy+k/zuvqY4jj22Uh0+zRtEvXZy7LylQgy+4IJXPjwXGb3gDA09x/2zvf7JX77aIM69tUVrPKydoDzdEJG8JfILuHw5z71gC0u+ahihvXkCNL6j4kW8Ns07PQyyAr8sHh0+VRCBvjhrxT3q+e89UJSdvRaO5D1CvhM9H1ADvkcZBj64Do6+eumku4IuOb6URCy+ZR94PSFce72ltgU9+G3dvbZHZb4PKzo91SYCPiQf7z3qZdy8oK4QvgMAeD60Uhs+nHv+PQXRJb3Mkos9zHHTvGRNHD4K/oO7KGHbu4Ykqr0QJjc9TPk9Ph0+mj3nRHg9i+LFO0QRYb5sNIU9y2W6PpRR+T3xI3s99jUbPWz8mL7Dka++8Ot+PdP0ej7hgfQ9J3sPvQzqYr4qVEW9XwwvPq+d6r4GTou95B5bPSt1kL6gbf27EeoNvtU68T1Fg8g9pz6svQ1dRL0Wi10+y6KOPevehz3wER89KCh2PTxH1ztnOqY95uEXvgBjnD2bIyY9Pbjhvc3dVr6tOXM9VtFkvfG2Sj4gVxA9E/QJPlxmhr7tkhM95YKLvco1GD7qqKK9nd27PCXnlzxDpQI9DUyvvXTdCb2Pdxe945qyvrZzj77fbqu+P/MZPradiT5Um5g8w8eAPfA+MLxW2wm+pHaCvL2A772V6z89jcu8PYgU6r3obsI9F509vjDu4j04HAe800wdvl3LOT2tzqM962o1vj2oxj3jUyg+aItfvrJgdr7qlVg989S8PXBxkT0unLQ9tHIJv50Soz7barm9zlyivkT+cz4VPRw8BCERvsqMYT4aoI67ZEiePiDbwD2xTzy9hB/nvuJQeT6/ZrG9P1laum+f0r0ddeg9DuOXPe5Hkr8TQrs8easUvj+iHb28NxY+1l7avY8FIL5KFUY+oQxMPZUjGb2dO0O9UJ/1PDgwgTxitGW9uVU2PfILYz48Kci+G5a+PQdn3L2175G+oI81vaqPij0bqsq9O4iQvMDoIT1eHgY+mUhvvUYx4rx2vFK+kqp8Pq3XID7ob+i+y8Ekvh/8eL4N7kk+2Oclvpue3z0e1Eu98P6BPruPbD2Imy09oJeyun/PkrxDRwE+Yn3FvRfoCT0xltu8BnHDPXwhBr3hI/68kcKNPQHe6TshjTu+WT6FvWAMCr1Krha+ikr7vOT0HL7LQRq+tudBPpdrprvFGLW80pB7PZ0+CL2vBzS+0miQPUQkWrxbI2C8aRrOu8T7IrxIPy4+YDnwvHJBJD1TPF6+v6AmPjbCJr1Rv4U7ReUjPufPsL5SPmw+g7aGv4WdST2OPJ86pGEMPmozubxjqa09G1OYvlbXRj1xiMa9LHsLPt1nP74YX9i9fDnMvKb3or2DYJS9IfDavc6v0b3gDbO9gsjNOk1vbT54/FM+22GlvWRahr0hDIQ82zs5PGSjR73Ct0q9LPsWPuCIOr5hQR+9ikCmPXGCGT5UFBE+bMMOvov6ID2npeS8OywwvrAuobyc8bM83MfiPR+gFz4Lyxk+1G8SvhH3/z0AyXK8t/dfOygLRL3x+GK908SdPQTKV77fs8y7f0K4PbJtOb44xYa87I2XPpypJz4aApC9QVTWvYoWTT7qy2E9N3QuvdlFmr1Siza+k8Whvbqbyr1KHxa909UoPPMekDwar9u9kY52PkC+gb1HJo08ANvbvGFX8T0AmqE9u1ACvj7g3z37O9+9RKoHPSomED5iV469KbI7PU0zGT0Khos9VePwPXzkLr4Opt+9efg8vhRaSDsO0le9t4GyvQpSTD6lfdu90qTJPdcqkz3Felu+a66PvkDn/j3xwYs+1lU8PRrDjT0wboO9sKy7PBjs+T2BrCi+UeaVPQSb3bwmq2+9xwOOvugcYL7FTsI8t9RFPYemADwZPoQ+Mw89PX65Lb0Q97M8FOb/PcLatD13TbS9IC6rPhgXMT5FUlM97To5PsMrlLsJqTG+OggLvvtZCb5LYAA+F8HuveFBOL1ZJpY9BiaIvmqkFj4NPLg9DjVAvWRsu70I+ms8aGadPTeOaz1aXmE+hZ8gvevsCD6zNsm9uEG5vHJcVzxgOGw+D4NSvEN8Gb6sWIU9HLU3PZl64L3wRX6+eMucvRovfT5sYT29yCKYvue8HT75asw9iNMsPoTjSD34xcO8odGNvvcsK7775rO9zE1Ovu/Imb4tSMM9FEZgPvs0pj1Jm5q+NZf5vNxOSj6joLG9G40hvaleUL7Asds9qsW0vhhTWT7lshk+z7WwvT+xOz5ehwO9ocKNvlWyk70Zxx69yy+GvnaTYLyVtz091ENbvLmPjr7FEKS9Ll0fPfftBr63YXW8QAohvtACjb0FrKU9zKRNvlESo72Aa5c++5yRvT6+xjzeP3++d04/vt2akTyDkAm+xTg2Psg66T5+J6U9uLKVPrVHY72S4hY+KYWxPc9XQj5FU529CFc6PH1qKr5CmUY+egcjPpRopr4VMJC9KKPCPfYH/TxEeem6/RcmPkKS9b25IEy9ph9RunQ+fj6t0om+j/vYPoOIC77Vyv49/fw5PkQMbD3QU4k+ihDTPJR8Sb5kSMY9uJWXPHJELD57xmO90mSDPTVs4L3ZPdC9qBp5vu/Yfz2Nibm8MFrxPSYtbT6J+K895VUvvd3/Oz1Anxu9Pd6Zvn+cijzkUYI9AIJHPBNw1D3FqDw+D7jRu8+Hhj2zUbW8QkJfvZRa2T2ywf09TaOSPT66TL4KEgQ+6VMuPoHOdT3441k9UZBOPZ/7gj1JDRq+A23GvSfdSz1cy2C9cicfPbshYr7Ao629qnWRPgrUT74vLCu+I+R+PjkLlj5QL0k8aAwpPvU4YD2xUVE+kDVyPXBt0ju3bD++UAziPe/uAb6IyV69BFmFPknBrb25wXY9i8ZxvSvQkD3geaa8GYGOvYUQsrypnyy97xgYvYttODwSSBW+ggA0vgC+LD43Y0M+HzKTvpSVwL2Q7WC82qCRPVyjYr5TUKk9gUWgPeRI5bzacW08dLymvSqYl74hBwi+Q8aLvgpIez0I7DG+5mHhPVKQdb6OYB68kba3PRaxjL2p7OY9fNOqvhhXrTzpLfe8zpUUPgmE9j2Jrne+DXvQvRCOH77x9V28iy+BvQeOoT6A90k+jc31Peqc/Dx+Rny+VCOxPr4n4T1Hc7o9yzemPSVBRD2vMAs94rn2PfEgZr44XAm9PXLLPsxrGr3mFwY+UE6mPpSLKT6wUpe7TwuMvhcSOL6Fesu9x556vhEDEruRjWq9gQ03PtVwCT6gMqO9e92nPZx2gr1K3Zy8NweEvaVJGr6003M9X5gGPYLah75leCi+xumlPRBpmr3Oywc+SzZiPj9wrr1A1c49HoDNOlKXt7wrg0k94AaZPYRWAD7IqIW9GKZTPfD25jx4eo8+dpoHvi9nxzxCp7S9g1aevozbHL4VQAE+PUSDPR/JFD59u+m+jjV7PvmfED5SRXE9opVXPchrcj6sy9W9j4F3PTne2z3J2ii+LiKrPLPbB746EYI75UwsPrE4CjvuKvC9HMHBPKB7ED6F59q8nNuHvkGwdr63lsC80evYu4c4Nb7dwEi+C9OzvpUZPD6ZSzW94gr4vo5zEj4lcDY+YeFBPkEdDD4SoZS+WhBePihoNr4iWDa+97UtvXHRhD7MOoK+6tENvkjXsr2izy0+dj3hvIHIDz2YihO+6HsIPl6YEDwTi5A9SRRcPWy6cb2YplC+UnI9PiImvj1Pn2U4bbYRPuHwzr232sW8mPR8PofEJb523is+l+oKPp/6c7ywn5S9XxayvfBxZL0LWhW+z47EPvQ96T3Vv9U9Af6YvUAtTryXCR8+gTkxPYkS1DwOEoK9ItamPWaK4r2pmTu82j9avbdPaz7B0NY8VC1EvU3NPDzSTaQ9VkY6PbQLRr7j9SK9TfacPaO/7r2hOf49LkoGPnlt0z0ySbe7sJiEvso9Bz6pNas9TXiXvs8+Ab2aLsq7BYBxPV9/Or1jvpS+tsesvXUlBL65gMi8CHfhve0eTL2pZZU8ZTiBvf91zr7Yhwg+V7hQPM0GfT6MYxK+CZHfPutyN77r2dO9Tg0Nv++f4r7y1sg9HzRWPkZZ9bzS6xg+KsKRPSvkBb6CJ+c+fZXcPTKZrD4IzAw+3UZ5vVIUTr6wN6w+O8h4ve0LfL6dZzK+KG/avcjEQz27N5+8SZuSvr+K8Ty3voM90NiBvQJ8Wb7wZcG7I03qPgPvsT6Rhme9GG7bveqSAL2MbJw8QyUhvtOTo7uoHR07AMwKPM9A3T0jTt+9m1UrvsD39D3HOgq++pQ8PaIQ7D0Gkrk92GvBPFnEMryDMse85kqFulnZAL4znZ28hAHaPF9thb47F0C9zxYcvWOs+j3mEok+PkfXvFfQ/D2kdb69CyfZvWF1lj26Rk++RDCLPdDwLjxkKwO+9k3gvq1cUj5rhA4+YByPvGpEI76GlTs+cjiivR8cDz66Gyg8cSMgvtyqiD7dUGO52eO4PDjccz6FVMq9tzesvqiGnrwR8g480umsPdIu5z35xIW+qwyIvcxmhr3uzAs+XEoHOKpRd7602Ji9ctMDPqi7jb6iokU87+IaPgYPwrv26949kzJ3vAhrFb6apma+X7ESPp+7Dj1TBb6934q3PmH54jwybtK7RXBePlOBPb5LYuG7FeUBvPiL5bwEZNS8ghLtvTQp073Xbse8FH3FPZhCAr2QG6E9KnZkvWlZAb1+L1k+d+XXPSk9Pz7Ix7O9IOwwPqRHAT48r9s9Bfi/vR6jhz1yC8k9vnFSPjhg1r0p/pI9PE3+vPO9j74P/yA+gpc/vlYIoDwkXca8lFIbviNPcD0CwX09vZeTPcuyFb7yKKO9p9ZGvhmrfz3/OQy8PPQlPiCZJL0yAJi9iPgzvDzuQbxOCuq90SaHPtl/Sb5AxNy9M/n6uRz2Pr5Iswq++y8tvc8plz2cE5g60e3LPtjWPz5bomw+aKhXvkVTir63NAI+OXAqPuEbwb19cXK+BA2euxg4QL7vhI4+j+ePPfjigb2I2rC9TDgQviQScjz5/i89h9T0PAI8Aj6Bp9G93uY0vndWCL7ozdI93kF5vm6lxrkyGDU+fID1PK+bw70HKue9fx8AvolZtDwNAT8+ejhhuxjEBT2vJW697TUYPV2/qTy1SCE7TcI0PZ4KsD2eoAK+1JuOPpDW2b4glwW9IR0Bvhh60T0L8/G+RXkJPvOv6j32m8g9P4C2vuwT4D3Mv4C+f5b7PA/A3r4X04w+3sTAPgumdL4pvPw9wi3iO8lAij0HtbA+F/aivX7IZj1nLGa8L0d2vSL0mb5rhsg9EEZKvcAIgT0yCfU9YgYJPS+32r3rTVk+IbVlPnBknb4jehM8GCvhvs3jXr6eN12+7xPePUfgUz4+Vaa9+HfMvEpdij6aXEK+Uw+4vYo/P7xiapw+5jO6vQ09tz47U7E9Ol+LvXVw3T1EBgG+semlPYBiIL4GQIc9oOaPvplwl77iROI+/TQoPZwB+Ts9unu+/mUVPmz/Iz0yQJ0+oMOlvbc+Mj4wweA6q6jXvUmhgD4RrDE+KTvLvXYj4z24TkA+zY34O1bklb5uiAm+J+OSvoC9ED6rWFi+p+8Hv4Hctz3SWwg+Fn3QvtUkPj7K4oe+EdcPv9cqdD9336U+Qyy+PUYPTD2sHnC+uwbKvSsIeb0gUf4+Rx1CvzOuw75mkTG+lIeXvpPqmL4n8B29hqKsPbXLub1tVn4+jKLsPdyH4L6DnNa+GAd6Pnu6Fz4tApO/BQ4/PsZGPj7Mcx+/bHYBP6+XGb+m6vG9/EJ3vhvzTD8AAIa+qrDSu3/SlD+WDd6+IyqDvjv7Vr7ZHm08K4qOPPE2vr7ayRE+ZiWRPs+p8jx0F14/v2kIP9noDsAp4BA/GlKkvwfD5j0XUsm+w4/OvoR8gj6xfVw+BPG9PmZSjT8C93Q/zBE/PcKDpD4SCde9wRG7PYHe5T5Z7KM+UqgQP3mIKL566M69Sz+XvrFcWr7fm9G+svhdvwiEa75mYYy+vtahvFX5W7917Se/r2NQvrNXhL6Yuzi7NgiHPEl+5L6DR/K9Xlzcvrv4vT7Mb/+8XMN8vjOtJT4h7XQ9UOSTvn4kVD203ZE9WdmsPQNcbDxjIkC853xavkPiHz7CpeU9tRI8PTrSDD7j3D8+lA+nPALHZr88iMy+PVlbP+Oyej5NArk+nM4OP6R9cD+o9KM+7h9Ev2x5ED9hZly+julxP5aaRz/aD+8+DZ1GP8abwT6lOCu+iRu7vqYfgr4NJdO+/ZKQvjwRAD7KkPG+szFWwBPVFz9nT5s+yPVPPsmMn79kcxC/QD0kPjTl/T0sM+e+ZwsHvsktlz4jVPe+G84/v0gETz87odO+dkXXPoodij4bw409EjCtPkFDhT6JZMC+pzrdvhWbUj7NP309Q0yBvnoXDj+SlKq98KyrusnbVL6RMAa/yKgBvykpLT7yOiS+k63qv8uO/Lz/SAm+aOFxPdTYLz9Smgi+HGm6vixg4z2uyjk+bVJBPo7dBL+11HA+rDq/vl4ZAj8ZuSi+uosnvo9eJr7GsWY9HVXBPvtNVT7C0ag+xbY5PnWKJT40e0i+g+Ozv9BlsL1vJoI/HZZuPidTNz4sYv89gTqPvx9ikT532Ug99hw1v7rcPT4Gu5g+Vv+2vce02L93DKm+AozyPsy4l770PNG+TdOJPfikIL7PIj6+POVTPvtM871Sl5i+YJr3vmB6zD7J5U8/WAq3PidPmL+qgAg/jvwHvpZskD7Ewiw+B+EWv3I+N75KsCo/VdJgP5y8cb+LRAi/CIDrvT2kJj9gT/k+/z8KP5RHnD7BRJo9kmrAve5War7VqfU9qylUv3bn1L45LAq/lLSovXDNOT6h3yu+SNINv6GUxL5ci9K+uw2rPWAo1zq/pzY+oOYjP30Uwb5nzVi+Jfn4PRyKGzxUMra+DSZyvhDBTj/7Qew+hyglwOKalj5PCLK9ussovoXtXT27hTg+Vu1QvYeSjr66RpU+FLwJP9LdBT5FGvM90u3lPQpoRT8RwOu+81PAvg1OEL5+iBI+WTRRP0ktEL7ENJ0+eCO7PeapND92Csy+do3pPV+pHD+oiaI/s0JvPZ/t6D2+l2o+qUbKO/ZT7b0AMAm+ZeqWvXI7QD/Crz2/K5GDvf5wdb5qlA+/xcaOvt0GWT5rkvO93wbUvksCpL7MtZI920XvvlZlzj6p6fS8nMEQv4vxtL5lzsU+BuVJv7fEHr0X14o9kbYaPS0Jrr5cdry+iMhZvtHInT56e8O91yB3vc9D9T1SLaq+PayYviQFgj//pg4/0dkBwLBFhD7P8Cy+LJr7ve3VF7569jQ/JosBv0vVyL76BM89kv4iPpYfwryQVNS8MoeAP9ZyAT7Me+Y8wRWOPtPsBT8sSHU9zoMWv4fqgLxQNq09V8wJvqbdirzaPZK+5C6fPD1h7L4ltRG+0o/hPpSz6T3wBGQ+w4qVPQiB9T5sy78+u/4mvqLPcb9x7r6+0M6JP8ql6j66PlS+q0TBPi+WjL5yQiu/z4MWvmHYU73Ct5M8xWYRvrqD6L2jmMe+g0wwPlOqqD0uS7g+YspaPsmMQ79ISI89HTK1PWsVbr7vQnA+JIaDvWqSij551T8/h2UCP5vOrL8/CYU6cjcYvy4bcL5gPNs9rmOyPYB6EcAhEcO+7L2svximcj4YBcc9tv8dPc5GAT7y1SM/Fg4ovlQxTD8kCgY+0Zwqv4mn/z70jJg+u22cPqiXaz6Dg469y5nDPTeQgr4L4Zq/6xxyvrVOqD78niw+Bxa4PqV4+76UA48/og9yPgSBvDtOI5o9VCCXPqWBJ7/J9a6+G6kQPVc6srxo0x+8rLuIvYgumL7gWFK+HIZjPXVDR77ZKVw/OJplvc8q+75/tW4+y5Ipvgipdj6lygC/hEHOPh5fAj8Ko0i/k620vrA2gT0E08E+g/WNv0upJb5ipXK+fN0svjguBT6VvoO+JBqDPIkIsL6VWAG+sh/0PmivBT/nRis/Uk+AvmyIob/BbWK8pe8KPumdwj6xYDC+b8C9PXEvf71fPkw/XXwqPuzF5r92OIw/OgmzPgSmqT4DBe+/PhCPPagKzz4Z1RK/MGW4PCsygT1Trpe/Bn6cvQPjoT6VSZw+5KV2PgGogr9Q2MM+hk6gPje0xL4vpDA+YYLavbCtir9LxBw+vQJ6vSl4Cr8mj58+qEowPu/Z6jtmlQq/IrZ7v2mncb8UCCA+BIfSPCjcobzPViPAitQOPimqtT4/rNq8sOXHPl/7kb6qmWG8wsXEvhI3zz4YahA9jwJjPtfrET/tHdw+12I4P5UXpL/qsUY+Q39pP6wVXz7FqgE/jy2dvnOqxj6rH/a+4jtrvjO13bwNoIE+5tUGvik9mb5FjK48Na5VPhIag74tkjG9qs1hPndIWj96Rte+et6dPlsZWbxCKei+jlsNPR8ZLD99m9++qUgRvw2V6T74Joa+pYGPPhDpkj5aZFS+JqMAvSMLtj8dIf+7bTJFPXTkQb/RJT0+HqPMvQxlyb7DlVm+qgg4vVwHej2aoVO+5g0CPRe2VbwCYlQ/WlLbPfEBXb/Hs94+eQI0PrGgRT5PU/+9pUYUvxrlQL7BjJo+IJ+APh0gbj1iXZI90DAJPirIq77fjg8/wUQHP8Z/Vr+QrR0+Re/Uvg9rHz+osaw+q32SvqbtOL62zDk+iE/nvnvCfL6KNcU+mDPOvvlfxLuZPM6+9I1JP4+JnL6LEag+gNrrvk/flr4w/Yk+nk+ePmgfpT1+e6i97eMDP11Cdz4Ceb++0L8Yv6O0Uz9nNUq+dOk+vu/FoT4Uh7E9O1iiPmuIrD6FULS+EuEcPsNmRL5SMgG/p0zkPVfmVL4QnIs7nsVEwBS9GjvtXKS+EJPFO9h3L74aYDc/qXs/P9U6oLwmG46/AYOjP0Jocz4S7t4+6CvwPfCwLr/9WjC/HLtbPk46Oj7F2Qq9UYvzPRGvGT+1Xj8/XS02vvworb/3s2W+OZjnvRhJTD+bQ7Q+rabfPqgCf77UYeU8U36wPXuFbj2fvYy+5TN4Pun8fj4xGSA+aDGRPjh/V79ddeU9U1s6P6KfqT4tIHw+VkwLvQrxvL38pqa+XhFYPrFjYD7/Lqy92UizPEvtvr79LiS/LzLGPku+A77kK40/ASPNPocHKz7u2tA+k/cnvqhbjb4FIRs+6HOcvpGU7T10w2w+OwVNPuQ9ub6O5wY/TkFzPs20C79wFBG9smaiO5OI8j0bg189h1+zPvFKLz6yeu0+l62KPtdAI8BpWRa+mJAkPRcPkr+JPxW+uXtVPgNZ/ry01Ik8tR45vtG7j7+Mhhc+x60ivXVKO79unWG+jW6zPZcFQb/C/5u9dz4QP+LvJD2UqMC/56Khvs406b22DzY+wkVYvgbmgr69Nv8+t7N7vgRWK75V4iy/hCE1P3W7qD3sFAc/XazHvUer272TpQ0+1tMVwDkwDD3IrB4/k5vhPf2h9707XYM+EEcsv/ZlZz+MclQ8cIwcP+WzvT7B65G+QdBHPgWQAr86RIe9BEirPlCKDb8Zx8I+DKAkv6S3db4C7pu+36iaviA62j3L5LA+xm0gvRj9l77euGc9QcBSPudl+j5zOyw+CHvdvnI8hj+xsJ0+PvkUv/tifT7uSVS+3fKnvprovz0Wn5o+u9jiPUpfDT4+aoG8IsRBvKhnLj51DPC/6nf6Pvnhnj0BrY0+ljvdO4d3Jz+gPJI+Rq8xPXsLQT/vtoO+FxE/vm6vdj1mAs49SoQiv3mEmb79GJM+bqHvPXdT5LwwHDu/2ULQvvQqvL9TQ/e+5msgvkFe/r4GfwE/3ROXPt/Dlz4FqnO/JTDlvipTkL0ZlJY9xuk9vp7mcT1czzA9bId6vhZf/73e6vo9fqf9PTY72bxapow+8UvavhMn8r3XP8u8si4kPsy1dL2ZnW89z4G2vL5Bnb236gO5TLGivZuaAr4awMQ9e9XlPaUFLzzpHC6+WzmSvVIGHT7aKqi+QrcaPK+q1D3aEQM+840vPsBfuT1WFD6+RyaovUE2SL3EoG0+k2DCPOvS4b1Thek7YWSrOi+QGz2Vypc+bNyrvXp9t75FAEA+0DFovEAFfb4VW5c+bHVFPYR1Bj3C6ck9OHocvubHr70T4FY9ECTWPdtvqjwq49Q9pJGgvSbulD1U13K9yMg1PXGA2z0uH2U+IWgbPvuTBL2zCbU9a5vpvULBnbz62pG+o7iEvct63DyAIZK+tPP5PV1SP73CHYe9kvsouufgi7yGAmo+6UhmPt8MgLxhGS49IVGZvL87Gj5mDpc9WSsnvoo3sDuI5Ak96yozvZtGzT0AFR2+wO9YvpWGur1XBi28Tm/nPGhprjvTwC4+KXgiPu866zgzrky8TNCJPqWyo72kmJE9T2SYPbr8Tb1GryW9RHgFvdfV1LwlcHw9zmYDvT/Qj72/gzM8Wu0rPk4uoDzL/YC+8GYyPWJLLT1qSy09b1JbvaUJZbxUJ2a9m+TDvbbvJr7jl/+8RkeovS4Ucj3XqQi+ahCRPl7wCD3luBc9SG3ivH+kDb0kSU28mTePPXZqVT4Tisq8WeobvrBCdTx4f4W8Qm79vaUkxLzINMs8KfBBPM8g6LzBbVo9nN1avSyf+TydILs8EQVvu1toLL2cApq8jbr2PSeyj74RTLY9orpyPR0yh7y7+Iq9JhWuPSvZED6+djs9IYSBvJ1MpL047Dg8e/4XPifuaD6fpeo9JLrUPTtxgr31hsu941v5PFKsZzzx+TA9p9y2vBjW6T3zF5A9GcfRPerkET5eEeW9t9M1Pik+t7w9hkk+xftOvqE1PT1+HDq90bnvvWVnuLw4cQq+I+GHPYDZDL38Sc89FskMPpTYTj1Skai9lrIpvDMMvD3Hc0O9LbiSvRZKhbzIEUg963iyvSDwhDtzQ0G91Cm4PdJ2tDynIjc9rKtQvKHcXj5YP1o+votfPfrrO73yo5a9oSOnPPsBYL7GtRu9gUJZPbSpizxv6O08tlFSvTi2tb3oK+U8PPvKvVRmdTshIaq9dWcZPiU/6jxdggo+4S8PvLfkhrsEYtq7Ehpnvj9s871LsIa8AYQDvqbWcL2LjiW6Vn4hOcF2X75ZTk66x1+IvY7MAD6jity8RWBjPWWX/bwvgy+9klAVPZd+fj3inNg8jaPGvOBpGL5eDIK9WXJ5PWY+Yr02eyK95tu+PRs0Uj1fRsA7rL/svV8QLT2jAj8+uUkgPvB+uL7W8TA9gHUGPPxHP77rmMG9bCghuwDRA748X6C9FHgWPH6opzyCN/A4bJaHvL2crb13u7+9kdl1PpYMhz2v4g++W2koPeFtzjyygF29hEjTPOZ0Iz1hoDK+b7/bvbc2YL2m4KQ7Rw4bPnksq74V17i98x4ZvBhlKD0EuNS8WVi6vU+/iL1qwZm+j1l0PX9OD704pCO9JmYPOfwknjuQmTU+vEMEvi2WmjtVkIm9JJupPc2PWjz2UTW92LbrvKQkoDwvKoK6fqPGPKPwRr2PNca9ofqnvX6ecT2vQ0G+7SBzO118NzyWO7S88KEEPaAqAjxJ25A9lMiGPKVuV75GyQW+OOwSO8MeCr3pwu28mGlGPe02s7zala09uWcYvXocj71PS7g7C2llvR6Vy7wU9IS9pQE4PWYwB73qeaY9SdI/vraWYb3pG/G8RjTiPPWdAD5Yx0o8SboEPSDF/z3F46u9zyo3PeYxsT3sVM09TJ9FPTs+wbxuori9lc2xvFwUuz1kuBq9yTXyPftjJT64lBg9oNXEPGQj8D1tRs675bKMPnmEo73DIoi+C84Bvkz0Jr3sSYC8Ddh+vXc1Nzs8Wy09Osoru7mhlz1yzbS8NxKuvRu8Vj1RezA+B+Juu57s57x4FQs+qwqdvaPBKDx3E6w85JqDPZanj730VQS8nCudvBCTDL0HfLE9aQkuvXeRBT5MJOI9yM00vmgtkrxMp+284rMUPY5WX72x1TK9xTO1Pas5Tr2i1De8zIEZvg+D7r3Yd1Y+5VZxu2+uHDx3GIg9F7wHvU+fvj3vvws+VGnFvNAh1D0qRIm9/Ar6vPBiFr5WAUy9D54bvQjQ+b3QeGO+/kqlPHtRHr26r4a90qdMu7z5Yj52QlY9XzwivXlrR73B+5C7xxxMvHbbgTxVdo+9rb3GPLRGvbyqi3k7xmcwPf/mtr23YNy9EcstvETpRb2IXLw9qudVPQoMRL1KfOO8x/RNvUiPGz2aqxO+0JmFvduJoL2bPUk9SZvrPDA7Ib3H8707fqQEvX3rIb0MGR+9jhwFPqQmYL0FIie9ORY6PJkqBzxNyDo90U+CPUq/o728rPa9DEBjutjlHb0Kd4s9Sdx1vdHTbr1zyn69gmLqPXCBvz0cEke8NKc7PvENnb2134m9lPhrvf3aP73vqQo8TnG8vCPrmT3fVYA+X9vKPbYUhr0Cej09uK0XPT3utb0MbmI9WpHWPZWm7bxl9qE8pknFvE9uAb3XWmu7ix4dPm5EAbx+l++9anxPuwBl+DxePlS9J2QHPtoEJT5E+529nkAkOsQNsDwEz4o9L8RYvU9z7D1wd429OiU3PT8AzD0w48q92JObvu9k1D1LOBY+CT6RPVZnqz3EYUo98ESFPSnDPL25YyY+D+pDPMYrpT3+jxU+nnkFvkAw6j2B5Fs9Kv97PD7xxb3cr+M81P0pPaBKDjt5HkM+uzAEvQuWW76/fQU+gULyPVd2tby0Gz+9pFxhPhJ3Ob3Qgb898XGsvWvzqDy1s3o7j0I/vTuiiDwd8mG9MOYLPdt5Mz2Z1sU9uB0EPooZSL3yVFo+PwiUPKcHSz3GxyY9Asouuw/agj2fAXs7c57+vNzaNb2s79Y9RLOYPX2pPb3tcEY9WJ7iPATrYLyBomk+El48vRnkgLwMMCY9FC6EvQmTBT0J/y+8wqTSPMgpAb6f1Ck9UORlPaPdI70aJzC8dEPTPVi7ErwuHKU9hM6Ru58ZbzxEu188LjKHPYi8O7w/OQg+msWCPOxtAT3rFS+9uq5WO7+Fdj3dP5y9FORGvi2vw7wnqs283eNoPZU3zbytyyK9oN+HPS3otbyMFty9pUJNPTizGTyXJla96BS2PD3hO7yZL6q8SKoPvTi1CD7YvFq9pJ/oPD4kMT6GFey82gqtPAd5Tz2IzSw96F0Ou/NQzzvxAJm9yvyCPU0Ycr3mCpY8pCkKvPQt37209Hq9wi+IPcyr2jur/4Q9FQGMvFY/FT4FisQ9x+KyvDh8STysgLc7uxMEPSZqlz37RwW8kusQvaXTLb4E6b+8BJwAvcwgq735WRy99OyXO7bgyTxn3/29nxcjvQ0ySL3Q5yS9N3tkO9YjR732w3K83Q+wvcplYbyA8MA94159POeepLyDWpA9Bigku+JFxz1WPwe8sj4wPDHQBTyDcG694nNwvGo8kDwopmW8/sPAO5uO9bxyHBy9NWEpPaa39ju2w6Q9WHhIPmUuBb1d0to7xAD1PAOMzT2NNi8+SG1wvT7yCTyfpSu9vhwaOzeHpjw/FJO8vre+vFxZ6rw4Qrq8vvnYPbHmc7kBIho9a1nXPZAASj2r+s08CFNWPBWeSbyXnm472xmFPFjZjDzxtQo9InaivQlAND1T5I68k2aPPfUtBj3bb3s88Tv8PWteOj0D5HG9xVF4vHC9gTwZbzk9/NGjvdD+Pjs/iuW6N98kvs1hhD1WHBu+PQTJu2yKpz40bKG9UmssvDVNMz1pVRO9jvsJPh6qwD3/Rgy9kjMyPFx4WT3DPgg5yvMCvubSP72nxwK9uZ5dPbT2lr7Nbha8X6ChPT7UgbyZ6QY+yftAPu9uhz3y5p8+MIitvfiMUj1oFEk8mkb/PX1Ck73dGAI+xls/PRPMsL3s26Y9cALevTRw87vX+r089haVvcQ32j1FbUu9Y/yqPEyDAz75cRK+y4BuvkjBR720njE99PKivfFFUj0Yp2k811KcPVWNzD2Rkoc9Q7j1O1RaAT5kxAk+ZD/HPHzwlT1QyyC8U665PF8V6Lzr2oc8deupvBM2FT2tUqO9VTdsvWhlDb2EIim9WpInvRg4ODuIPG29d2KgOqBUVL6cQjS9oeTpvRkXEr7VTQk8GUiIvTkfKj6xfYc9YblJPSObkLzS5s6+gjgovmeCAj4OZzS9dNwkvJmnZz5++F6+ShXWOwNJP74dRL8+HkHDvUCzBD6dATa+8GhDPihuEDzc+Fc866cNvqwqSz36wL89RuwHvXh9LL6vcr+9sefwPahETL5mwqG9k4v2PZf9vTwqNrY9dzFiPgOcYL0V6oS+VX6QPa03KTypEE297qkIvhpnHDwZwHO9Tz2XPRYK4r1Oh2+9xVbKvosAmz1H1h8+Vbm4vhl2GD6+UYA9QYpHPXakJD7gF76+ATrGPcUpcr6od9o8gZ4BvyGOAD7/JTU+Nb8ePfXtmzw1Lrk7LQ6JPiVmlT51pR4+v7/Ivps4BT6CXKo+0NuePsS0dr03/4G84meJPQt73779NjA9HPEfvMCyrL4sPZg9FOY7Pg0Efj5kG1A9hyiKPSnILDxPXlE+gJU5vtZCpr51p4Q+Er4FPpxoVb1PdSA9e4GMPtUbir6BVzq+BM1xvTy9Nz5p2vG8AkRQPQWFuDxHSiq9IzEEvXvNyr10/ss9yIhOPsBQL738DVq9iX0ZvhxYPrw/Mjq9AvkiPdB2kb06kva9QCR/PougAT51taa8AB0yvcBKP74TzrK9PBiTPa7g2L2wod09Ng03Pk0YqLxeGyA+/nEsvZdQjzt7Wou+z1ypPG95eD6iO+u+r1PRPQTi0L7JlIC8qRDaPLV2dLz4R8C97jizO2G6UT6u1CO+6IiHvhUZbj28mw89hM4bvnRin7yzyU0+4gywvSl/9z18oGI+3ow7PNmyJT5fX7S8IEpRvruGYL1wrTM8O9eUPTc6Cz6fPBs+ZF3LPvniCT7xXE8+SPpnPuqyILxtOoI9x+IVPTpxPb/a+oe9OofzPG2z3L6NoTo9nwwkPuVZHL6xTMq8hnPbPKk7mT7efYW9w5IpPtQkbD73Y4S9VlyevF8efD3nmdU90XoMPsxBNz4ekfw9RF9KvtxjGL3c6p29sb85vaw1o716d9K+PmBMPV1/GD6EaYa+Y1CyvU5YiD3wsQy+fRcSvlfOiT7Oy9G9XqXAPTZRoL3lFTC/uqe5PADNIr5Jc2M+GoQ0PSehd74sezk+ysQgPn4BJ77CgWY+qsKiO4FECz4YdPk9LdegPJcECr4Sc9a+JzsovdQwvL1O3GO+nLr8PSmliD7cbK090rCgvKypPT5AhGe+UIAxPrEO1b6PiY49uIhSPgyjAr5S1mI99+BePc6xAr7rs12+LRkzPqRYLT5tVzg+C/Z4vqA1IbzApq498kgRPaRrED7LUcO9qxXIOiPo9j3fCQu9NuAzvvC7CD2uPsM9+8a8vQaBoj2XmyS+bmIuPPRui7w61ZI9U9qHPWNPuL6T8qm+3dEbPc1wCb1VAmY9j6MZvhEzQj5fyjW+B9iBvg0PZb4vA9q7A1+XPdoVUL0UL7U9hKPhvXM9oL1xARa+OKt8PeMhK75bxB++ugWYvOc7C77shR0+a/4tPtznpb3fs9s8Mm/3PBnIwz3aM5w9zqHOvvBvPD6sVws9E294PlmDMD5OzPw81FZhvYt8+L2wtqE9izdbPXy2wb52hlY+dzQBvijw8r2dJcM8nCXtPbJucD1Tshw+6vqXPQEHQr4VJ48+5JjAvbk1MD6wYew93vGaO70jPz6sOwo+n//NPQSEfb41mkS9DdqIPRp5jb7G6kE+oLUhvO6DWj78/mY+0l3FvdJo6b4cR7g6Iv/ivQBpt7wUI1q+afdlPUYTsz1/gA8+VqVFvLlGtzymr+C+jnyBvdC7lrqM1CO+UdECvRj0E701eqM9eShFvi/4TL7uKfu9PmdTPoghWjurChC+QK7/POAUFj0NlaS9SqSXvi4hILz55no+hl0IPnGdZz3f9Lu9X0Y1PFT2DD6J4hU+2EanPcWMFz6PRkQ8hrntPYULXz3IbiY9JQjMvmLzyL3h8J2+CPQfPn15jL60cGs+mOQgPmqawj1oTns8MmRaPDAPNz2W5y++5juJvCw99z0086Q906xOPGWcuD4orw0+khfhPf4iAT41JH++MJuUvudVqD2kXiE+OYQJPikJ8T3IL16+kkcYvju7yL6Xk5G9rl86Pit/rLsu/549ZwvdvksqQL4i7bI9SFOnPXDjPj0bP688IDcXvh9JMj7XEVE9fucUPe77Br6x1WM9Sa2lPuuPfj5PTDk+ZvSXPgqSAL6myXs+x35xPD34HT6lu2s+LUNNvbV8jj0uK2i+Kg/Hu+GH1z6itdI9QgmFPk0Dfb7PC5w+/ML/vRy/qz1G3aE+b8SvvGONeD7RXos9mXpXPdrQAL6md+c9D916PsG4wbxG4A89Y6CDPlGrJD3KD4u7BcKRPv1lkj6HEb6+Jh2/O19JTz7m2Bu+Iq2ovV87cL0aDQ0+mTaUvJC/dT3tQYk9clKgPbzoTD2Wbgy9EnNLPa5Vjz7C0uc9EHrNvvI6zzzv1SQ+sxMZPkEprr2JD5y+Z0bHPYG6Lz4JNcC9IW1uv5SNkj7L9++9lKkAvq0dAz4xvzI+DJ0gvxpaiDtB0s+8U3PrPLSvDz6LBpa+LPI/Pp9H6D0XPAG+0+rnvWyvqD7py+e8UZ4LPU/NljyyAdo9oy63vWPipD1twai+Z87fPbI3aD3JUHc+0b6ivY5RNT1RkZo9tFUwv/blITzQGX49t1GRvlLZPbyAUEw+//6EvvKSIr3oKrc9ha3Mu+00Fz09INg80grUPIkBU7tPeFS9zqAcPfRDvz3ASxS+HmkBPqGRjr3BNHQ+XqiBvD+Uz72P+p+9lcbkvTzneD1PRoO9ZoVTvkRInj0WcCG+rB+/vi1joT2dquE9NsEgPjTklb3dwji8Xm5RvR3Wdj06H/I8QVYvvgb3Kj4X7iu+fpwxPrpy2DxNVyu8u+p6PL0eqjptAnk91/Y2vtHYMz0hYw2/EKiTPF5FSr7xgMG+hLULPhIekz2YkNk9jfKLPWW4yTxk/xy96ETmPXoa6D2a2RY+p5ipPDHCGj7SXrQ9p77SPR25iL5ZUZ4+wPVKPdneAT0XGfq9RrsVPrj1nb5XoRa/KK7dvRkxpD24m9a9sckfPlXfuj4DJf48syaNPTbDVL3COgQ9x2nQPr3PRD1h+WA+aUuGPfVErL5ZOZM7oG5/vvs2Ez72PgG+fmSEvgIOOr6eQa0+PGFHvQv2o74Quiq9B6TGO+GsYTzD1269qNdBvbBhZT79ZWw8Pc+/vCFsdr33FA6/hQayPU8B6j2Zayq7B5i3PRCtKT5BpYI99PnxPTMjyT3bhQw+ojHove5K877m3xC+dx2bvXA7BD4A9CM7JcOzPZaW/D0FmEM+kuZfvi2Dv7vStCS+PC9iPhT4bj6mx2O+/gsuPPEHTD2PhHC9ewTbvrHJaT4hO9S7th5FvuQ4cD1qsZk+/GDcPeQzSz42EzA7GCp4vO/Dgb30ZYI+gFjCPSdTOT4eCHM9n88hO2oqq70bAV+9UgycvTT1nDyKwOy91gc+PiqDhr245C49KMkAvv4Yrb2WPfY9QRZBPXWQn757wpW8F6WSPn945D0T2/O9p61qvjB8s70I7zG+t0TwvMoVAT3CDce9YESZPcbM1TxEV808ZafZvZVnFT6G3AG+lbwxPs8azbsARyy9VcOyvAy1C73ki3K+4xGWvbX1674s/f09T+1FPXzKF7/BFYu94kywPZcuDbyRoNW+JdmRvehGLz2EEt2+V6Iuu3fYw72AVDk9nRaXPd5Fk70Vzw6+pbXyvHQEArrRzIa+YT6xPaMuO7yQWfY9tYq6vgES473Sozc7BGCuviNmKT1GeQW92orYvRoJ67125TK/4ZpAvu0FkDwbTcs9yvdWPVhmHL5r8DU+zmmAPPNMXr5gk26+VA7RvWPuMr5dk8I7IamVPBOF57pnYya+MbQdvq9UPD3hTM49ZiATPbO6+Dw1XFA7KgMCPue7Cj5CaaS96WGJvd82qT2tm5o9sbcFvmw3gD3YWEy9uURMPaEUSb5LYYM97nb7Ow3VpT27hcQ8E2ZOPQG4vj3rXpi9PsM+PXjRoLxCbzK9YiPJPVXndr6ALqW9jmgPPlnJob6hjIy9Yaphvp52sD1cHQ07LkGYPh2y0b10lcc9k+A/vjN2h7ycfKw8EgSrPSw5lT0R8bC7rjwkvYGY4D0HZAQ+C2cCPrazwb0zxBY+gi41Peh7Tr6OHJg8ctWsvvBtcz2c9c27vmhEvoMspDz9NAm/Iy/+u3Tja74A9h6+2Kt/ug/unbxDevE92fN4Puzl2T3CmAO9NdQcPuWsxj6uCRa+K9v3vtmZAz5B/oO9AeBdvqaYZb6t5Ba9BNsMv+Hhiz7l4329XgnjPbCkvL3pSWW+SABsPtL5XrzwK7I9cQrevTEVcb1VFrY72xPCv6cPp70bwZy+RtC3PruvTrx6MEw+kTgGPsE1Hz4qHZy+z09tPjvWET3MMDw+/8loPvEXGb5jzw4+YgKevt63H75V6kE+HPRIvmLWLr1aHYe8IplovXOxRT5uuoA+gIozvawLCD7+sny+kYG3vSCV7T25T4k+VZjsvKiwNz5+dtG9FM+YvdLY6j0nlaC+ofmHPg4cRL3JUmW+GOqRPgD3Ir7W0Du+yucfPojeMb0wCQu+PLqDvnLzGD4pWZE+5T/fPoLFgz7KKDO/DKPVvUqag75Xbls+uHBQvq5DnL6RcaY+dtzIvbPWLz4cJhE9/pmFPK6QUT1s5X89eHdpPJl3wL1AcUs9ykk5PT3DnTwckcY9r5ndPE1XIb6tgJ688/ojPV52GD34V5G8vPz3vFd7fDyfEpw9FTZ0Pd1ezLy7C0w+bQZiPZ7WxjwhW0e+TpQNvdJKDr0nLsU8/TXivOs8uD3rCLy9LBuJPWuqnL2FdEK99xJcPQnJxbwFORY+UL2uvKufwL0kQBS+Z9Q/PcJtmj0voUw+CqKTvcswmbykgMU9rXspvBmd2b0ftPQ9axHsvTJt+LxFHrA98mdbu/KNSD1YQ8Y8DT37vO6W5DzoFFq8HQkBvAiQhz0W4Uo8WoqTvPab77pW/DI7b/EdvSvmOL1Ny/o7CYdYO+dQ6DyUL8q8lHZtPb47wj3EIPE9yeaiPZBzkzw4veo9+IRPPmxiqDuNCrS9LbmuvQ8KaD0ZURI9UPLQPFG1kb45fAE93iYPvVKguLysjAg+dcIivppICb7NxBy9hF6SvviLgb02pP080SGlvPmo8T3lQ8Y9OqipPecei74qXeE9fMQlPkdXCj5EPb89ufLRPUm0kD1LGVO+HLyUPS09Mz6QH4s9flEGPfbJe77eQAA+FdpTvJhppj298Am+Z0E0PqUlKz6WvWy8cKdivhTFVL67zZY7Q7HDPWLR2T3qKTA+dkMJvo8L5z1pdYa9k1ecvoloujy5ZQG99wTdPAslgL0pRqy7oOuxveUFXD7+UYa9jOHevTzhIT6Ezr29bEKdvqeigD7pwwO+MWmuO4u6Ab6qspm7tniTPUGNdj1BFJ49+TVGvRxXSz6lUzq8LP7AvRSIWT78JiK9levDvQppObsDRm8+c2UAPj1N3z0hjZM8lbv3uzJoNbxdzg09y8ifPRKKRjxkJlo+QPVHPfLoabyCoQ+8iy9uPcykRb7o+to9/GOjvKoo+rx82Vk9wFKDu/VGlDxSxji8ms8dvZplMr7ZSw6+uG88vSRQSj1+25O6ZSa4vA6hPDycJ6O9QpwuvSSAPrwdS6c8j3IAPYkxxL0rnuu7qAW9PJV/MrxXsmC95H3LPF97BTx+3gU9bhmoPQ7uVr1715c5y6kJvjrYWz5fdMu70upVPSA8UD2WN5s9BP10PH2eSjw8dUy9YpE6PHvOVr2GQq67N9Q2vrDCBT0RkJM8y0mWvYnA1z3DnW+8NIjuvVnYcz1HV069rB70PHb/KruS8BG+wWsXPZ5Yib3VdzY9QOB6vem3Uz2ZKaw9xKqfPLv9hj07CIk8jKKyvb5Qnz3Xt4i9AYhRvepo4rpx1mg8Jz82vu/9uT2rofi9HqS2PbmFP71D2qc832kGPd/esb0fKaY+KfLpPZOzaT7k+5g9/V73vQuNzb20sYk9OQcBvuMR+b35P2m+kk0lvmrAejyACYW9u0NFvDfZDT4OyGa+MaCrPLp5FT1dWAW+T1ApPn3Ogb3JrKa+h5FYvYFhB75WcAu9VWQhvk0LlT0vByU8d7sqPiuTEL6V3pg8HBSPvfrc1rujpzO+L756PgjPbL1Xjz89CASRPnSRlr7FJAU96hWqO/+xBjwJfr+9rOOWvcXH6r0xui4+wiDjOpup8LzyJAo9iByYvWhf370lR6U8ms6+vTJW6z0MYyo+/munvfZyBL5n8xY+5Lc0vWtmKj07ZFo+lZDuvZhrh72DWXi+KYcsvuY6RT6lYzw+qoV4PgTUHj1LTyC8VRQCPgjekjzLwnm9ajhevRYuPb3Fy4s+t4hqPWO4djw/O2+7JRSdPYaRlj2TZbC9+OKgvozaGDxXFnO9CQUFuRtCtb0lbUE9fMZqPXizYT5iLbw+nu0UvtESbT0RzD8+A4QHPvyXDb6hVfS9Y4xZPQhwFz3pKsa9mqg3Ps3+0D3CH5o9ZJsqvhPbt73wAGw9912PPRZ0oL2gb789tZcDvuIVTLyFhPA9g4HqOS6lw75A3AC9LQZNve0Y8T4kwnK+ByFBvdHKEL2rqqC9rc03PN9GXj0JMNm8nxu1vbOzBj3MZIW9m/IFvgu0Orr4ERM+LrCVPRo/yz2WUSe920qNPCVGRb5u+ju96ss+Pn4ifzwT6GC9BdWavbgHPL1r1Bo9Q4GOucMCa77aiu+9TXUNvoKR4D2mgg0+98k6vaQz3rywWHO9/tibPZ4oZz2zI/u8aZGrvVINU7x+rWs+8R6dOqWtir2GqkU9ED9jvo8vZb4QhKY+PhIuOpt3ubwDWpC7+pvEPOfvY7w6/IY90ZDbPEQKJb3NUty9/8LXPRw0jL0WceG+fbC6Pr3L8bwe3zK9B5OVvGevgz085Vy+tHH2PZ/qWb0Ae1Y+VNYhPiNrLb2J33O8SCM4PEMkBb0/LlY+NTarvSrps71uHRO9ReyJvUpiEj5IUam9nqSMvf0RSr0IqSC+q+F5voyPPz6KWmM93DVnvB6JM7w36mU+OO+evrkrkT0bzhm+i8AfvWfpsr0H4i6+wwhlvYpCBb7SuU29MBUpPXu6fz0MO4Q+FW1fPeYMiTxRzAM+e9kUu3mI7z37zM+9j2fuPdEYMT2e74o9OuyLvowZhL49hmg8WLA4O4RQ7zw4f528OfaYOi85ybydLRU+FxYevgN9CT4amvI8UvIBvVDdhD0sjKw8Q+dyvlQ7Tz44nXC99ZB6vcmZQT24zg+9Yd+LvfgaLrwJiKM9zJFXvZZVXL4cl1M8nlSLPDYJTb185+g9qHWMvSzEAb5ZIaK8PPV8vOcHw72Oce494FGqvb0coz0jBoc9gS0IvN1jtb3fqU28QszMPPLdAD5wJ+471zAOvGDrOL37ZBI9IBhBPZ7arDxul6M9Hk51PM4exTeTjzO8ak8APumAgDz1AU+6BHt7PJ5xwD3RZFO+cLN3PT74iTzfd6a9DEvkPGqUuT2dNPK9vdiFvUxinzzZ/e28/fRKPX9d4j18Ezs92OHIu4HWBD2lNSa+CxuqPWPIVr3X/ZI946zHvKnddD2s/Am+OoB6PBP7lL3xWp89gsjDuj5ZR7yhdL28WB4LPETt8j0+pUM+0EMzvetEKDvplSA9O2IjPYm3cL07rS49uuqGvWVy573x/Cc9lrF+PRwvlL2YWWw9vIC2PTzW0D2DF7g9EhlVPcg/Sr56BKk9997zvBgAq7uJbvg8oRa+vGFmuj0kva69d6r4Pbr2BD6Qxqo9tnJ2PYGCRL3lUdo91gCVvVpmGj0lmc697nELPUG/hrtzDGQ9oUsfPbYeBzzgYEu+HlWEvAo8Jz6agUW+Od5nPbW0JD6p80m92araO3I2nT3otMc8CXmHPdZWbz2gTds8ZfkDPtq9Jr6pJi09nZ0yPh0wQ70VHqI91iGvO42j470/T6Q9sajIPaCjHb0bsYo9KMCdvS1eVb4C/647s/UCPPvJ6bvmfNM7hn8tvr/lCb3hL5O9/ECjvS3qgbx4SJu9IrBmPk7qnT06qxW90ZmAvb9GS70hXti9eKkQPGLBMT0Ot229pUAivTsZLz7KHLW+e9elPqvcnb1pg9e9p8qBPSJr7z1Ei3+9AHolvhaj276MGFY++vWYPhZHvb18gMs7kfzmvanxir2i38S9dDFyvhSZcj0gyZ49Tz7xPBKpAD1rZZy9BuG2PceeCb0ZFiE+K0dSvl/J+T0BDqe9JBaIue+kBT1AzJu9sAcmvg8ilD62iZs9V3zpvc02DT6xBka+lus+vmu2UrvTNFK8NazYvHJIsL1fz/O8t8M2Pak4ab0JfNO9LLZqPqO6k72A26K9SraEvTHgTb0cg645/7x2vZiCjL2bzwg+IgrgvQuPsjwKxpk9CuqSvYoLBT4Zj+a9LDICPn8NvbxmWfU968gwvXtNKb2BOXU+GM+gOpDzBj5P+Iw+DOrYPZTXtD6Ang++Tp8MPxotPz4iZaW91cdHvlZ9iD0mi42+GXORPT6N0L1V/NU99lCDvkwVs749Q4w+fTMcPhJ+5bwIny2+r/mDvtqjfj32e0G/iyWjvSSYPr6wHLo+BfiTvP28Jz1ZDBI+XJjjPuY8p75BTao+vV4MPi9kkz0Qsjw+TgNOvplWvDw4Tu+9QgMrvZIAMT4gBM29CbK8va4slzzMi0++jePJPLjOkD1RZfW9s/2ZPnV3CL5G8UG+uUcvPvFtDj4toTA8qggWvvIS0r2kCoQ9UgHhPcYYRr5WJYs+XWVWPtqJ4b5EeFq++vTMvE7RmbyWzzc+JGeDvWPjZ70hKXq+2u6YPjFD5z3Cs3U+i2cMPwuPCL+RQ5g9N7E5vXu7GT7wxTW+IX+2vk7jbD50JnW+lTLdPvLRWz3zcAC+1JWNPetUjb6wut8+8UvNvl/btD3QBys+fjApvoY8nL5VndU+HUwzvgbxxLzA/SM9Jzn2u7s+Sz4mNyI842U+vu2TRr1cDZ69c2wVv2hpGr9d06c9OKA4PkUpgb7GZwA/wfCbPQQHgz20CMk9CGKtvf+Dvb0glYK5Qr44vPC9Hb56gZ6+QvEkPrRcmj1khZ09R9FLvpYiUD3/ddM87lWdvavNJj6XDvQ91VtjPiOGWj0fvR4+bggBvhPaXzzbQGm+GYtwPDGMhD0nu569sXMLvrwxwD2+10U+IH4HvjGg6D1/9FG+/+Mjvu6gFj4BuAA+7V6KvsGGyD01xOw62A6Bv0fGgL2HW0o+THHTPnuLij4Hhiq+x5cfvrJjPb0fMM09SSKoPgPGrT5vRei9tqYIPp9KL73A1D4+DyQUPR4NfT0fMTi/pSBhvhRV5b6Fbfm94riPvnN0tTsATak9gtkevrC8aD3OjG69AvgEPpE3lb2CJDg849FIPWFKCz7GGwO8tMdHPWYk+L0yhBG+2nYsvhKSLr6OjpW+LCPvPoh9IT14642+BThavpiDi73hY5u+UCyCPkoGez13T0c+x/m2PmV5zD0MmBM+KJi/vj0JTz5Rc0E+HrbrvlEOpz6Uzx2+FBt2vlgZxT4U4bY9e1L7vX+d9rxlJ0e9DOgEvtPwsj6OCd8+UQNRvKsMcT6MkrY8tfATvywxkr2puTW+2i4pPnhYKL6qAX++HT3lvBY94L32v3i907AIvz6iYz6L+oc/1mVpvnid2j20EbI9fLssvR6bxDzBhb29IJ+ZPYYBv725Egs9Y9aavjwNg75U6UU+LI6zPTkoUz4wbBA+kNVOPjPePr6EVig9iPqYPcLuwr2Z5jE9u4juPZ4LJD0VbW6+74aZvIhwsb4eN4s9eWIzvca9hr7Slfa+nQh6vsZMIT3mxi0+/9trPtxAibzhfxW/J2InPiC/rb3zcjm9lGitvvYLrz1fS2i+pJievTnn6j4+0xQ/f4GiPisHZT235gc+d01GvXfBVz6EWb++PKyrPhpzCj6luLw9jZLePRwW0LxYwH6+rXBjvk+AjD5y54+9FoV5vZpvHr7Qk5a+WYv3PWwdmT3Qa7w9vT9pvU7aSj7xy9q+qpzVvH186r0kOZQ9S7/pPvt7KzwTN8U9GkY/vWb9Ab608M++BAaevZXcI78KXUi+obvjPVdXUT7Vqzq9EF+GPoG3+L0LfiM+99qgvr3uIL1H5AC/C2xrvoc/rD60WYK+EyfSvE/UmrwuNBq/iBjuPdG/jL4/fSW+XUDNPXdzK76IT1U+kN9Ovop9Ij4m8z+8ynfhOzTyN74mYji9O8W9PaR5ST5UhrS+GonDPe7xob2Epro+bjmuPFqGNr9mpjO9Dsivve00LbtzwSG+oo9rPrNm8D2FOo0+yURSvUnWq77HAJq9o+kDPS5KCr39IQW+L/OhvecGtT20yDu+TkbYvYjNJr7uOkY+jMWuPrVeaj5uaHI94RemPTJfX77eyHW96tJ2vjzpTL4hfwI+HuFhPhEXCT5jNhk+Tnxavii92T3Iwnq7v57rvQ1YfzuvQLq+Ar3fvS0dEL7Qape+WPUVP6rwMD4RFBA+TKblPgKTvr1IzhQ+OCJGvyHqDz8iQEO/V3/GvpBcvb4fupI5iNjJPSeKyb4ny18+Bt8IvANvBT61HEc9e5XHPHArDD6htm48DMsdPswt3D1kFAq+0fo3PXGsobzzsAE9jxscPS+Et76BdYW+W7wUvlcg0zwAEj48yoU0Ph0Y/ryjhZ89FwtgPk5zjD7ZT4C9zcHFvqpc8rx+KWi+vpMMPkvssr4Z7oK+2dsTvjh3x7yRsr69GHIBPhr2BD5HUGo+nFEGPrQHpD6HFLW9pfwrvlnLjb3J9om9buFBveHVwj2rQyi+xP9PvgTa0bsTuCa+sWUMOiO1C75Gfgu9E1FAvvvxXz0qeUw9oBsQPfkIZTyTHGc+tMdNv0Me3T0hyMq+1d/JvBTxmj7njFK9/KVaO+fqsDsCNri9LPhAvxK5Wj1WLGe+DCdrPWiTm75wyPg90izgvRk+Hbwag2O9Bt5KvpHFiz7MJ+494QcKvVqCtb5yuK09Bzy3vvzQmL2kxBq+hVxLvmk7Vz75Nri+R+Dxvm1XrLzDIY68vQknvSkSRzzvLiA97UUivTf0Pj6C0GG+Cu0ovZ1u57wv/x4+q8a5vuuI8r45MJC+ue4WvjNZ7T476sS/cxN7vRPfjj1R2SE+Hp4DPSGONT5Uury83nt3Pk6+b75vF6q9DzI7vrlyJT4+sy69xtsRPeTRSL2KbwU+wTC2vTi07T1bUzs+P3HGPtpy5zyuAVq98+56PeVgAT5ejsG+gHHAPkh4QT7aG1E6fTkvPf4b/T2l3ws+hfzhPuF1Cj6mFeO+WZKBPTZ9sz3Jr/c61W6Bvh/Md772pce9d/UGPnCMMj7gpJA+znoEvsysB7/gBpQ6bfQGvwDlqj2hJtk+TXiVuzqcDb7kfWK+/cOoPmunrT5521w98cANvi61Ur3dZPs8boC5PUcakT7E1DC+qkgIPgYJ2L3TCOi9nDmwvoA8nD38o4A9nG5qPr75M74sqZs+L6DWvUxzAT5AxIW9Hkkevpjn5j1jrJ8+pRQmvmc2/by8vPG9dnakPQDoWL/U53q9Fbo4Pb2ytb4kfKm9BF5CvlzDvT2Fdxa+FU7oPs2Xoz7WbDW95wWBvj8xiL1jUaU+AX+IPg7Sy72NeGA+j79cPdXteT5z9qA+F7kyvSxwgr7c7WA8vwJUPjN8nz1REwI94qSrvQBcnL4mz4g9f+V4PhWRjz4gJsm95WvJvTHS2LxFhMO+7z3JvYhjAD80Bo0+TAeIPUAmkL7zhO68lgMFPt3f6LzZ10m+kLAhvuuhpr5TZ2G8OnsTvj8DQT5R9x4+spyPvh2ADr7iMh0+bIS9PbJ3sTx1noU+oA0LPgo8iz3mOfg96euTvpRGFj5nMzI++QUnv1BwKL0VG6+9E5PVvCKSCD7RpjQ9TbkfvpZ4d74PqgK+ejwHPqjegz10J/m98aKkPZ37Ij28y4U9zQV4O8hmwb23NF6+FJX/vhetj77HVaK+0eIrP1hEPr6LbM89v5V7vSZcNj2kH8e+P3omPeldhL5xtCE+KLRrPq2vWr7WBgc+OWuWvk1jfT5hFB28yJCtvTT2ar4vUmi9bhYCPubqkL1cYAg+B1xAvkqver6EjRM+Nm/yPUjb+z2reAc+vXY4v5pDzj7Je0W92u47v+zk1T5yvSG+5owpvjV5ij773g6+3/9mP26s37uTtjG9QmolvxNMNj7VU5e+AMXaPUGxS77JWak+3EwNPuKKhb/0Zsy+gUP1vLIjAr1GCGA+RyJAvgAHob43/gk+6fiNPq1bQz6SORU7vje3vVH50bxSvIe+Avm1PflkA74vwg6/IRqTPRilgzzIMCM8i3eNPEy28D0Onlc9q0mqvUHt2T0wE6M+fO/XvvHt+LyCYbq+xFEgPy0GmT555bq+fG+yvXh+qLym5Nk+HXUhvkYDoD6fSpA+tmO7PliGkT3m34Q8Hq+BPdRraj03W+O9GfYAvhRvyz1GAam9n5LBPOLgjjmK4yQ+0PtpPp7cDj7E4MY9SlFxvrfRCzx669G+w7IYPGCP671nV2q+rP/ePXc0Kz6GARk9x2YZvbwMi72aFLg8epC2vMtGfr35qWk9w8PFvhYtEL4ho/k+0TO6vfsXSz2L9a++vRKzPaH0Kz4celK+KTJmPt7rJ79gWxM+rLShv0w63b4WSoC+QRCePO/n271PESC9B9rXviszNT6Vi8Y8ZVxdPu03Jj5041M9ru4AvUzrvj2jbFA9i3favcmb67z8qEm9BFrlvZZigL3wRxa+DkcvvpYljT5Q45m8TwyhvVxj6Ttk4mk9tE79Pf1fgzwA1rA9fKffvotA1r5MoY4+48nYvf4OdD3gTrQ8M/sbPVOuez4dR4I9HxyCvd3Nij1i4eU9Y+DbOx8YcD6o4X+9jt0DPcqhYz5T5KO9k1ISvgroVr7jSca9kF2RPT0ls73Jr4M+yHKsPVorhD6yNXE9mmufvrh6HT14UFW84ECRPbDulzyfDzO9SFaCPcrY7L0ncLw8rqqHvlwTHD7Kidc9eASOviD7vDzvdtq9BEI7vZ+FDT63U1W9f1O0O92x6z2ygZi81iTfPS55Fz0octM9EKnrvvXrlz7YIQ6+K24uPph7/buZ9II9RfGoPfLhw737poO8bBZWOkFNrj2tgzu6oXYvPTNsLj3ROSe+adFXvd8Jpz2Trh+9NNa9vEM4Fz3v7Ry+W9GAvXc/Ozypgpq9gFMJPAJC1j2kjj69WE56vULrFr5kCPo8ugiyu7E5HL2fSQE9a01tvR5HkbtLXww9AyTWPU25uTtn9X89mVe8PK3Wkz3czoO9ppzqvOtj7Lx58Jo9dvsNPrAF47wqtY+7Qd0QvePL4D2y4p88Yu2+PUlMnz1BKtK8Yz68PH+6er1b7ZW6UIvDPY3Zj70fuRc884ffPOukhz2Nh0a9Y0JpPa/8NL3XJ9M9S7Xmu0r/1TwCWU08JNYJPWZwYTzUBAy+V12yvJ+M1LwAUkK9y7aBvasrUD2yiTk9VBs9PXzU5T0a1o49gtk3PlNbfLuyJ+e72GmyPYwWCD6Nz+U9IBYhvflgsrwlu8+9ICk/vZQs/zyA2QO++m82vVq0Cj3+iie9HzGAPb4Z6L0a8qK8oS/1vUOTAb40qQW+vnWfvKwJEDz4kOc9vhVaPbj/Sz3RVYe+ueJ/vbA6Kr1ifia+jtoovRtX8j1AkAI+jiNXvr4vL7ubn589lPKOPbomGb0Y7JG+olLZPFJpwj3I2QI8jAQOvu0S8jtiK4w+Kh0KOlCbF75o2Fu+fYlvve7NiT27buK7IbMaPv+Sor2IWGc7rYzmvPZaxrmTmGs9f6wsPVPmNTzUwrO9QC8gPDFTQ71VwIo+kLYmvKSjmL2IJBQ9ByUjvQiPoL7m/nc9OuHyu8BTazuLMI+9bxkcPaSh9T3l15o9gRjSPAkmlb3YCLw9rw40vQKLfzxNaxg+HmUCO3u2Ez1450s9OUWPPvwpizysOeA95vyLPbLGnzwJkuo6m8Q6u1K9QD5Nk9e99ac6PvOeoj21Ciq9L666vGOiqryELQK+bhqGPjdbb71uK7a5CrfCPZCMmzzaATw9vYi2vGPqhz1Anmu+ndWIO0FEY720/Q29cMvTvTFapj2d1Tm8w3wPvp2WtLy8w6w8PKQkvltlDT0dXe69xknSPfLmhz1nOAS91RXovIuu471BmFe8tlohPivB6j0fu9e9m9QcvT0s5TsrDCA+9sKmur1UiT0HwK89YPHOPLDj/LwtA+k9b/IDvfSTubzL36696/eDPT1rir6jT6I9KwEVPAWm471VqfI9SC7uvRh1EL7mMR29SDUzvaXZtD0tg988KyePvcPSnT2EwB69GGOVPRXkdb2R+lo9CYf7POE2ybwFHaC8rt6NPdfbOL6TwT+9hqRWvaeYub2adSs8DO7kPJ/r7LzNKg49tPlevnkadr3eVgQ9NgSNu4OB+j3Yfb270XWjPS7spj0ajUw+24jQPT2TiDweXq+9EH9TPS7xnD0LESS+ZpcZvmz2970u2+K8kIIHvlcan7zdHnQ94fXOvVwQgjyfHhY89gmlvTui7j2nUvW8+OnyvcfPdzzL6mG8yCIqvT+YAL5K5ry7SFNevFwqBT0H4mS+u0MwPo6Ulb21xps8rzG4vUZXOD6YeYe8hEOXvUxaej0od9W8+ut3vXLJUr0GN808G7NbvX4Tfr3adM29nOzdPeyvA73Ubym8PkZbPnyHITyAkIC8MXxMu2UmmDyaIV09sDVjPfvjub25a+C9N2OwPd/Ev7z1GaK8beEtvRX4H77M27S928qgve3h3Dv2EVY99OM5Pl5glD5HBAI9nTDMO4h1Cz7eOYO9fsqmPHySsrt2Wza9gmcsPsZ1Fz3S2wU84TsaOjDLO70u5Lq8AdorPG/RMD0rJ2G9++gbvrkURzvgIzS93Bq4uuczor3FhrE9M9UtvUrYgb0Lrho99GwFvYGLHD3fKZA9Xvy0vZecDz1JiqK9QDItPRZvNr36Cws7DxusvWussT2kcDW+DagyvWXRND3Yg7a9LWfsPZQ5Lz5+fqC8K5aaPTVqur3GQ2K9p/rgvPK8Ij06XOI7UF9TPdAIJT63eaC9jBzZPf3EQ70U5Wi9pqZ/PW1PyL1yCDs9S+OSPcwG+by+AJ+9Tz4hPfzuUbsacQY80/MQPnND1zwRSN661hCTPBNmFz7un4Q9exbYO1SlIb0Zq3a94a6qPZjq470EDGC+jru0vWJL/7wit7S9IzzavW0mXjw4QSm9fMSkPRftYrzD1CG9Z5UNvMJJ671Cok09l7yDPq5pMDw5hYm9EvEoPKGKqL0N/S6+TgBaPhf63T1OZLY9gCFbvYcolDtjUDO+UNePvVEInD372de8h1p7vjoZC76neCu96uuyvgLRxj00tU89OWipvErGfb3XW5E9Vm8IvnVbNT0Wg7C9e5SFvSDTkT03ypI9EVqJvXll3r0SUYO7eBdxPWGCjL1KOGi9YLGEvEyIljwXgTQ+2FBxvV2D+b38S6c933CLvq+O2L1JWIk91cqdPd46N71ecIi96A6ePQNFgL4cxrM9AwZyvmCxLb1Ariy9intyvWykDT20Jn2+Pv7Vu3hVYD0KbaY9KxkVPgmqmj2fDI489SW5PSZpnT00WgO9F4RjvBKuGD5hfLO9t176PQQhQ75wLfa9eCs4vUPpkz3ZJEU95tU0vBsFHT2o10q85lt8PXFiAb6pV/c9Z3UQPXOt5TyGdck8PHmTvasPSL7ypBg+2tC3vew+q7zkPGc8/JEPvO4ohL3t+sy8WlLRPWdW6r2uArK9kzUSPVNynzxgIp47xMmuPbf/eLtAXAu+28ThvDuSNrohY5m9FpjuPdrTEb0PWws8zHVSPfktOT2fw/m8oKG1vcr4fjwfk548dn/Gu3ZPprt9nKU7LmGNO28vVD1JLuS8vbynPQTEujz7CeC84GwzvRFJuT31k/8865sUvALLfrxTWmK9U8MzvkWpgj2o3iW9DfBIvfxP0D1bZIo9SEuxvSMLAL77PlY8eRfXvYwMeT15Nro8f0rTPNk95rzjqzg9/3zAvemb2D0Sk0q9awZevVkTyr0J4xQ+lh88vqH7mjuxN5a8vRbiPXph/ztd2ja9AWg0PFaSXz2QS+Q9QP2fPerHdD3DnNQ7qcCIPTDNeL3YS468b9tLvaHbwb2wr4G9BIRmu2wZFT10w5U8gF1mPUKm9jx0et283iBIu73AiDwiqQu9XmWbusHpCD0kVTe9Tz2xPYk0vLwncVk98WJYPKeCgT2+3tY8Y8wqPR3O3rw7Vwm9+biJPXU24Tyjp2k9dBwGvQbUdT30/bC8wMYTPU6HsTx4nDA9JobjvYk3Mb2Xk+08JSB5PV03hT3YT8A9xrkcvSfdjDl59dQ8ZD/qu6+sJr3PX1s90MIjPVSZrD0MBRC+j/H5vFLvzD1EAZe8fVCJPeRlz7uoW029fwA0PXesb7237QC9/EzkPKZahr3/kuq8g28Iva05y71q11G9lWRDPXxsGr2VQ+u9XTW4vdvQJj0awv084hDEO+7Injw8gAs8A0+husUQzjwsH8a942JbvmsRuz3j7hE9k4hmPJTulz03LwE9yokVvrfrFj5nHQ298VqRvF/mar1drpK8xecFvujz473A5+s8Ff8vPbAG570WrE+9jhecPN51Y7609rA8M5U6vRoBTL5eydk9Kkpmupw9fjvFx7O9ay9tvAKUtL0ycjG+TGwkvUjzhb3Pnps9a8U6u1dxeT6iOvw8+XCevU4uHT3xkG0+5kS/PTpOOr4I4Bs+vBoNvdvpr7ysRoc8YInivXI4gDwi0nu9woukvGULFj3afAe90PYsvqVwZj7AdDa9wBy0uwoxFb0zEgG9Ju8/PVC4ZD02tzG9mtsIPKKfWz3Qv0e9o88IPXARkj0iqGW8vlrfPONVCj5on6s9m1QjPmyaqT3pHtm79XkAPWc2ij1V/hw9nb8wPuf5cr2gu4U+S/HmvWfVWD5pmnK9wKsqvH5ZD76JMAU+QT7hPA0f9L0D3qK9RiBbPntQor1JR3G+N4UlPoW1zrxEYTw+S6gXPNrOXr0d2+G+z49Vvivo1jpr3tO95bWOPc26hr4JvLG9Ve46PuZnGT4yYdW9xytMPgz8Oz5RQhG+RicnPum0qb67biO9QcmFvalGhz2WkC69rA/APXijKb6tgF8+lmsVvsOy1D2VhFw8EuuVPZwGtT1cPS2+godyPbehsz38Npw9W8ZrPXWNk776+N+7X2GOvpdudzt3eCm/i93WPaLpnD7oyJO+gDi+vCYBMb531oc9bGWPPSDCOr3WlkK8aNNkPd1LCT7pFyw+EpZgPY5Bqj7KqBW+/ytyPkT0mr1Yakk8Ao7dvThINb4iEgE+D4vivHk3wz3IEyE+VPLzvXq4BT6YrXo+PK6dPtxdID7bDfA95GkLPpYQy73fzzQ+nPagPXD6bL4Gz6S9d86fPbV/b77aZ20+mCcOvpJOVr0Re2K+9xfQvd3UKb/5ARK/OHMhvbOdMT1nyJW+Ft1nPq9pl72ku/A8NBg+Pmq+yLxCH4u9Uu1MPTgOw7w5tGQ9VXiQvtr/pz3HUqw+QrjPPU1LEr6PLlW9Ebq2vYgRrT2+EYi9WLqQPoVBI76Xx5U9B3osPnOhbL6R35c83r+pvq2CqD0IcVG6R3Dxvctycr6gbIk9n90dPsZ42L1tD489aTvKPQwmW77tr3k9J3tePY5z2r04j5I9HkYZvTQ0SL+Nq4u9yooOPrQgmD5slIA9ckvYvcz0g70Dnnk+oVdSPgKzoD6mcMo+25vcPbtxOD5k3R++MzKkPaRQD71quoe91Wsdv7xfO76JXJe+w2N1vtf3Gr4ZuR+9mMvgPVFqRb0jNZu8ida5PfQrij0iRAG+Eu9FPnKaYT1H6Ju7roAJPm00vzyUSKU8tqeHvpPdB741+AS7Im92vg40cT10DFY+laoNvtpVA76WM5c87L10vSsh6z17INM9w3ENPQ3XdT75bB677uE8PjIfpb4nyYc+A1kfPqf+gL7ndIw+W/SbPMRQ8L3s8p0+pVzWPW0Nij126Se8+KanvfvjLz0PnhU+NJ6KPnfq2Lz6tRY+OqjPPbki7L5gvSC+etg5vsqr+j0XGH+9rrZivopeFz7HaTg8znq7PZjHt74uxN89MywsP7CBtL0xR4I96ud5PbtRGT4AGBm9HHFsvkIzUzu+l+I9MNYavthxJz2LMo+96ZuAPSWJnr0xAwE+aj26PRnfjL0sqE09IhazPcbUxj31nWq+SREIPu1h8z1CJ8O9iw6kuo08xb08oma9YK0KPkLn772Ebgi+7ObqvuMCsL5oG1891UGJPcmYkj7zqRk+WPtdvSkjkbzAH1A97FwEPdXwDr7dQe09q3Bwvm6fkz3UxzI+JyRdPiesMz7DxCk9DsEbPbuOn73Yfeg9LePFvS/3mj4Nj5E9TZ8fvZh1MD0uLUQ9LZTsvXgRXb2MjIg9dENYPUrPEj1dAAW9eEPRvaSVC7w4vH29yHhsvF8BALxepW0+6NihvuYkDr3qHa2+rR3ZvZ/JaT5KNlO9doUzPhJH8rsObeA9ZJa1vn4Y6rthjou+KdVgPjS2qrxcHJ09kyfnPSPARz0SHW6+o7PmPAGuwL6D/G09ppdjvq9pfrt+aVA+NMOfPWkxCz7tQni7XbLKvu7OZTwl0HS+Ga1fPUApPT5MGCy+KlM6PoIBCr5XwCk+uf/rvWRcHT27J4m9Iy6hPRgnozypE+49S7XPvY3bkT3b/zQ9q9Q+PYv9wb1queW+mZ9IPZsuCb2vD6s9muctvplsZb21Tv49K8sCPr2MSLz+TQO+zgIRvCN/WDy4r6E9l7C4PZSji727HW0+KeHuvZfNk73KqK69nrGyPWVaRD4hKNS9ptZvPlShy7w+YPs8x5EqvUJXeb4Sk0W++He1PXHY3z3GrIg9RVlDPSOoeL69Qpu8HUGUO2Phg75SGoc8HpLeveCUVL3PTJu9NxM9vijBwbzz7Nq9Wam9Pesc4T6MxNM7/rilPWeBAL/5gA0+znq4vlMuj730c+m8xfIvvvmPZz7/n4y+DjoGPnteAD6CusY9lkihvR9EtLyGqX09uG6LPc4BND7hbzc+hocivmPOPj1P4Ie9+o7QPEiAAT76HWG+VO6pvRaZMT5VDTy9ITT4u+Ka1T1f4mK901P9PXgKhz6MgdU9APE4vpJv6TsYwtu9h2+8vse6Aj6r0DW+xfzzO7KEET7eVv89AekOviPSorz5qvw8cj4WPvQ4RD6wYX0+qR/+PO6CTz2663u9x+ihPatLWT4ufwY+OBffvBn0lb7xmbu9bYkGvmckBT32IVQ74awCvTGvwr6Qah49vggaPZnwOT2xthE9WutJPlIUbr86IL09ovj6viJX4j1i4Vc9dXTfvCPykrxPeUc9/fsWPceCQb9vGBo95CoUPWVGKj7PY86+DCz5Pes4hj35iU2+IlQvvp3OeTzi+Zi+/ZCrPqqsuL2vO5e9n0MXPvaIHrzmBBc9A2Y7vkiamL70bU0+obh3PewzPb6ZRE29NjPCvQbiaD0D6608aKdpPu+Z9rzFxv49xvwAvVvfwD1wd5K9sx+MvBSbKr5pawS/CKqTvoGCnj1b1pA+nnwWv25j0bw+dMe9yaLKvetbjj2c+dw9TDaavQlsGj2s89C9C7TSvTrgUL6kqbC9bpfoO0a/h72o4AK9eIYuPqspnDxKUPW9n8OZPTx/5T0kU/Y9QGg/vRvwNz5E3Q89pONLvdUiqz3tW2E+2N0iPmZexr0OsgA++NgJvRNkVj5VTdg7DClzvmDGPr0Ih+y9OAT/PZZ1h77HBzu+yBqxPeTawz31KPo9kXYCPvm6drzmE8O+6/UUPkR57L4uPym8S+W7PA0HXL57y9+9vb/bPB2FOT1y0gM+P/0zPXiVZT3khqI9pZ6aPb1ydr1qnYG9H/sfvgk43D0Wle69Yv2LuksByrw7H+Y9oAsvvC14CD1pTAo+xxOPvf7+5b1ebaQ9qRxjvffu3L0czDc+DEmXPoUXGr4I0KQ9cE9nvXg+rb2bqqG8s88lvegP6b19CyW+ubAJvs4rpb2PhJA+h231vOAjjz61pzo+q4HVvc9GHr6yrw++mgVSPqm95byf1Ti+tBM5Plv3KD5Y7U0++iaAPgGn6D2nGai+mfGsPXl9KD2GwmE9UlZTPf34k747k969i1ZGPl3r6z1zrlI+SP67vDaITr015jG9LFTIvgmeqr3SDAs+4YIePquMWD69rBu+cfZPPbBsyD2Dk5+9ivtmvJkoZj113A+9qtRAvI+VGL4D0gw+IZfEPYIFgL77CrG8TlP3PcOixD0h8Me9cqPHPCoPKjyfAy69VxYaPtZoWb5/LiC+tnJLPasTw7q+sxQ9cXgjvtPJ2LzU9JM93CWoPZJTvb0Qua69B8vVvJO/bD7b29s95xRkPNkxmD2j8bG952pKPi4KsD0ukhQ9fLRDPsHDszxfWhg9SCYJvk1/ej5EJ+W+Sds9PRD7c701yLs9NXWYvZOuZ7xNgJG9tsFIPZs6FD5gWo+9JAcOPpqKbz3HqGw+QnrpvBbLKr1pMTm+gFAXvchzmr4xmdK9X/KSvfa6JT4WBca9pXMLPlfUfD12OAI8lotyPdIAAr9XQwE+2PA8PYUTGb9XthI+VeCuvSaFxL2uYiY+qsx4vbYypj7Hc1K9NZn+vVB+GL88t709iAM8vsfCjj03w42+E+VJPh4+qz1mHRO/iFStvTipIL4qwGG9ZQYlvbSjCL6UZIi+TMFavU59Cz6z1GA9gXXNvcVbhr42ImA9dWM5vgKCP73evxG+yP2dvmn/Aj7Qp9k934UAPgUEQL3Nxqw+TnCRPZxgaDtdiTA9FayHPn2JMr7Bq0m9bOeIvLkhWT6Jymy+i5TVvWDZuLxHdtG7x21TPs0MG77roe09GTULPs4OIT5sHYA8mklXPOD4Jj50PRq9Tu+JvL5glr3nWOA97LMxvRpPuT3Pwj29CEqJPIDBtz0TfU4+slcKvppPdb3xwQm9IMTbvdT4HT4EZiw9VMcdvfi8HD7wqYO9wVxFvCW5r7zCOJ+9rTbgu5w0ab2SNv68ShYePuWDxr1zQj29FHTSPdGC2bzTRLA9dvzHvp7gKj23XYs+G7k4vT+tmj2pFRC/pllYvTPLRL/d95a+LPZPviK8i77WILA89GI+vLCfor424as939GTvNbELz4XXm0+/rCLvQgOLj4K+5Q+bfGDPRAFhL4WmGM++F6wPpNekb4Uq5k+1qKlv3H8Eb47ZJI+wsYZPgEGzzyZBFQ9aM8KPv9sK76BN6U+YgkFPs9GZb95RpK+IYrUPNtdLL70JzG+kdjdvSJjgz1WEIA+ZI1HPrWa3b2Teis+wuBkPnj8ST5KIYS8uWApvSktq75m7LU+H84BPmMYh75m4mm9Ad5sPaHLHbyri2w+ywYRPt8CLb82So0+iMXSPVMNeL6/aR8+2gFlveRnhb0Zzy0+9CRpvDBQST7hBSw9eP6+PUnFg761NPW95CYqPsy5AL+BEV6+0z62vRTqIT4dIYS9NxF3PaVFsTx7TlA+1LDPvZmxLL3YSgC/cr7pPA/HAb57V6s951eyPATLCj4x0L29rXLYPv7Ft72N9oA97AtnPqZHMjwHu5k9L6AiPbQMaD7udG28R2OUvpe7mD0s4/E8d/u8vewz1T1Rf32+XNCTvSfyhb2Ar9y7Sug3vUANF70vz5g+4UYpPKUtfD2CteG9N+mtvsfYZ7xwTAS9qMWrvL18x7y9nwK9Q8fSvErV2zypzpw9dzkrPShjpL1s61a8vvyjPeupjL1Lbm++eewRPf5tIj6YUKI7TlxDPRaVKz7pID48Mqm1vY1I/j0PAOg8zahsvflxT71CQvO828WGPg8jNT1/7qq7u633vd/NUjzoY5e904WCPV+/MT7ZIXK89UbivTb6S72hl4G8ZYqtvUivUrwHKvM8k7bbvNnACj21IU+9t1GbvQEudT1Wgm68KSK2PLhkXb0a8OI8OgsfPu7zZz0kvD89uqbIOsZ0sTz8aO89g4q7Pf5huz3tMbW8GqsYvcm5XL2BFZK8qvGjPcBSrz6zp4O8mCgBPYuw+D1MmV6+C/+LPB4KRL5a5xq+/iQgvg3SBz78zag9lLQQPoHhqT5zgyi7XAGePYrg873PgXa+Eq66voUHUbxx/Xg9busIPuvxU74jRAG+A6lnvB2rQD3F0hM9/jc5vtwRLj0AXic9LzPgPXI7Oz3Sv3W9rx2MPhYgVr2K0Ji+Sty0vpiHH75CmC+8tK6EvUs7ejymrjS+vmFcPaklwD2ltrE+y8mgPfnOXL14HZs90pMovahqFL5Gvx69wXqAPv7q87z+jUk7rJo4vXcMmrzGQK2+TCVZvabcdb0CEZM8z89cvUBpNr3Lej8+XX1XO9F13TmDf069avGUvlM/I75WDce9DhhVPEcHhDpQwoI92sDlvJoYPj66F1q96iLzPaHtwj2lg8q9dJSHPDLWBb1Lnd27ClI2vbdqYD7pYH492OuEvVMAhr33rcm9keZ/vXpiKj7fFpm9fO4FPkPm5D1zAuS8diHSvRuHT70bwqg+x7I8vpE4OL0OkZA5vD1XOz5qUb7Ksd87QLiOPJyqAL5441I8DsvdPOvm670ek+k9Dz5lvey5771mYtY94wN2PnBz/b01ory+z+AtvVUBpz1vCqU83/0ivrj7urzHmLS91W0rPraNzr2biu09+yBPPlgYDL9MP1y9X6NEPJPBDD2kHmq9JAQTvhbi2DzBf/6+N/apPT4/fDxXgRO+tqP5PRokDr2/GE29woBqvm7BqD3iIJ89WTDHPVeuFb4fZbA9al8gvUIIvT1aWDO9IPKRPVssR72mme491MzsvXhWFT57SZS+vp/WPTAch72qIVA9hQyhPJdNiz2gGrc9mNv8vCJhl75Ivja+TIxlPQDzx70FrwA8Wsg8PoGPpzwGTYo+/YJOPT8ZzT0XcnS9120kvvykkTwJIb88desaPKNaZ77c2JM6oPokPj9dOr5QBZm7d5whvNyfFT0Bb709tHFuvARukr1/iSS89G00O8D/QbzPWji6hx8aPUofzT13pr+9YL+TPXzoBD7NbiG9wNBPvTC2Uj7mZSS9AvB8PYB9RL3EmgY+Hc+fPoeLNb6CDja+o1AfvtqMq72LQco8wOVWPYVUoL3YAmi6gELzvQ+nLT3xfwi9N3LDvXQQcT64vLA9oucCPV29uLzyndM9d15avUewXT35RJi9kzRQvuMwmDzFMJW8Hkv7O0gET718vq07iUd1vi9poj2snFE9IMGbPPq4aT3nHeM9lUpnPaIBVL2zVjw85VeNPDe7Hz0XnF69usERvjPhS7yRwII+8sZLvesyO70j6P09ogaNvZOGkD37bt08V/0yu8TECD3fQTk8UU+FvZusUb7IuRi9HoiCPbFoN752LxE+KgAAvXFwjj1qS9Y85B3vPOFVBz6d+4u9W/cNvhoCir0KAtW8KWgfOyY27LtUGeC7gtOWPNAP7LpadxS8avsAvkg7jjvSmIi8pVizO9TLDL6SZQk9oCvTO7twsr2xwHU9bC9OPRhqgj1lsX2+re42vPXk2TzWPpE9XNp0vWR9Ub0g0ri9aN7GvQlHBjvxPIy8ntyYPQiyVD3nXkU9PlEiPEOu+DxQgHU9rhituzj+CDx1L6a8k4pEvTBBeL0xFiA95oKxveYK2zzZF4y+SHvsvT6qGzw9XWi9LdGRvRiKOL7oXjS9IQLiu8EvP7yBwB4+tJOcvVec5Tx78389dS7vPQOInj3/3MM8xleBvL5xxDyLg4k98CIIvsg2SD6wy689jHUDPcjBFb4GHU28CM5APu9BP71KCq891bkIPsaXTr5CYYm+Q60APVt2cb6zcjs9nnuXvLr9ijyaaai90vtaPCzIIb0WKoS7BBYPPf/q9DzpB649AV8rvpdYPb1TUXc9okOiPQ7fIL23MI48NtDPvY7lgb3tbnY872+3PQeFLLvWOEg9LW8qvrZIjb3GQ0k8teIUPduBFz1AzRA8SJJHvahakj1ZfiW8V9QwPS99vL5H3Sg+QuWvPShTF771e4a9ItuSvdZSDb3xxdQ8xF03vfxWWjyIgag9gL+PvSUZlj1z8s+8mVqavOuXdT5aMbs9wA7GPOmHVz1NqoA9YMWWPPhQ67179DE+vvViPYF61jy02aQ95xqxvFOEjbuAIU49UxvGPXiGSDxFZb48ChQXvfn3dbwRyQI+fm2RPXp6f73kITq8Tup7PbI2g7r8R6K9MBmkPVT0QT67NM29ym6fPiLg+jyD8mw9a57Uu821nj2uBAs+5mrmvWu6N70itqy8ucsIPf4q+jwhIVI9D4YUPdO8ij2IXY4994c/uVx9G74r8hW90gSAvcyVcb0Q87C8S1DIPIi14zruIeK8Di38PdT25jwPoic9Sb/1vShjurxerDg9h4/wPK4cO7sJFFm7L7WVvYKDsL18LVE8i3T1POU6cr0Rfv48I70HPp7QwLiPVf28J/KiPXCxFrxfNuc8yh+kPStm8bpRPkY82gR6PT5mzL2M+r484w48vmPit70cKw+9bNnaPd96w73JfrY8T0mqPGH/aT2jeim8Iu23PL9DgD25IL48k11IPeatCb4glQo+SuczvbwomzzHxS+93u52vCxMQz7Eqiy+zkQnvXAFQbx+/aI6cu9lPNdQUrytvM89JKW+vcs8Ez1cF+s5SFUqPdSI0zw16ug9xj0zPZYpQj7c6Em8C7nQPEF2t7zwsRw9+4tePQ0p7jysuyQ9NieTvAnsPT3r8dI8Hh6pPCJF771/l+A5n90tPTB2lj0Qy7M9kVSePVeHjL24wz4+SrssPMDhGz4Wbzc+tVkOPcaorryxMwm8HLHOO5yOmDxHR6e9KLMYPlgH8zxvXIo95siePJ2CTjuq1bQ92e27PDmy+D0FjTI9FW8bvLYqLj2GPTS9mz6wvJn3lj0ai6K9qySuvLUYrbsmPTm+8p+LPTF8VT1wPye9nIIcvdljG72quag9mb5rvEa6Rr0rQfY95RzIvTQAuDtYDJ6+sR62vUOLcL5ymde812+BvRulWj76dPg8Lss/Po0r4r13Y8g99yXwvbVn4b1okXK8CjKqvj9JnrxT3na+ZdfbPRwwHD7XpBG97dk4vUkVwD0imj+9zh01PlfmMD31rSk9C0DTvVfIITz8PZa9Lr43vo8HZr1tJCw9ZIsAvsG6YjzqiyE+u3wxPepgbL25eoE+kqXEPJi9FT3Vo3E9PyGcPq3HiD4DkoC+uZihvqMJDb7bFMa8qYJfvY7z6bwx1KG8bDIWPhjXtLx997I9WXrhvJkkh71CqrI+dTgLvrO8CD17I9w7jTa1Pa+1jjx8w029Wl8GvqL27j0+9SG+ew0GvnsAD7zGJVU9pViAvYeGED6djS69CAEQPjpUWj0hfDg+AuKJuy1mrb2/CUC8uWGBvRVusz57uHc91ICUPq1V7z2w4WK+J1MJvv/RmD72dsG9NrOsvLFzdz5D1Za/kU0TPY02qD1C9V4+pnyDvoSKEz33Z549IRKCPl6vvDxUEQ29zYRsv2N88r71M769Eib/vVacmL5PNXu+U/s+vDdExD0kc5I9ogulPQ0PAD5JL0U+jJU8PYrcPzxFVlK+vrR1vvagND3vjRE8t449vvsNBj48t4S+SsCqPRFut738d6g9OZ0Jv+fxHj5NX5w+UZUNv4m9Z7x5OZk9mZCFvb+7PD5P6Du+M1zfPTICKr9KKc89sMppv1j9ib0XTMM+ci7xvtfm7705WYm+VnFkPlPtej7Pe8c9UaigvhT3fz4X300+i+7JPmMkJr6P2iM+8DrjvfQ4WTxdbVk8gO0VPpq8qL5Diz099KsiPqwoDz5FiSs+f3azPr9xZDt5DLk+rN3JvERE1jyojZg91+d6PtDc2j1tLWW+chKKPgZsob6aIgC/Cun1veLbmj7UeK2+pOEPPn5y3L26jFa+o/5lvvp2Xj0oFMS+P+UGv8uYrL1fL389WZvlvkRXWr22Unq+ZJLJPYSQSz3Blm69jfUJPbDryTx/lZS9JLWLvWUqRT47Lxe+yTzYPjhaJ750og6+VC6xPVZ1Ir4KDR09b1yzvfzJlT6RmQK/TCEZPsFmGD7bH+a+skFPPnc1tL5z79g9D/uYPStFTr5a8Iy+yrRkPr11QD7zfGa+9X6svfAiSj6oYV6+v8vcvXuxBz5su/679oBRPS3APb2Iyy+/TwT5vZZYvz6D4qU+Xo+SvhzfEL3lrMi9zg8rPniOkD4ChAE+iAPxPvbIFz6NDQs+Jp4oPQHrXD7FohK9oh/lPYPzK7+18QK+ekQ5vfRAG7+Vp7w829ooPm6uSL7l8AU8Y5bNvj6fiD49FcY9ba3hPHMszj7QMpY93JWSPauhAr4DIpY+2P5VPZtKCb+30GW+yp4dvoUhS74d/g6+JogWvWp92j2ASTW+c/g9Po7Gg7xaU9+9AJUiPonhnT30XVE9avs7va21Sj7g68O+YnhiPs3Gjz0Rwvq+SqupPvfVUb6Jrlc+scWuPp+RFr6MRmw+YaqNPl1Vsb6VNM49LExAPi6VqD7PXvI9zbGbu5jfNj0hYA6/Rke5vQ6Amr00RZS+w6TOum+wKL7R8QE+tasQvq55Oz5g6GC+8ncpPhnXQj7xtAq+tPctPizByr2PeiS8i1XLvbrUcr6JR2q61kZVPnyJpLxxUzI+rrFUu10ioz3y/fu6+hesPgwG+rxt9qm7RwuePephIr2dAhu9dHzEvg5trT1DSdM95n8WvUEJCD5abE2/YEMiPsQeFT6MfbW9fJdevsoMk76OXR6/pZPWPeKdHT1c0bY+CpO9vhA/DD5wJj2+TZNQvogQFL4BRhu9H8VuPpFU2b2n4eg8c9sMvnVwVD67pPe7gEetvSwjOr5Wnhe+9E+gPeeT773iSH0+QqKDPoerLj64tB+9lXMEPLAr6LwTPWu9jB8Lv7SXCz5cG5K9LHlhPXF9XT2yAsA9TX8kvRH0Pb0N4PU9M50IPgcnEL/4ZkM+t7Gnvnngpb4cG0c+Ecp9ve0upj3ll+m9SVUPPfQBRb4V4LU+owv8vpiCyT6PGhc+JIWBPbuPQj7AhDg+vF0WPp15Fr4LSQC/aJo+u2w+9L2Ofhc9VgSxPX9Miz7dCQU+XwnhPbCLhr7Y/qq9Bdy5vUqBXT57gIw93uO8vSzaaj5Mygi+enwIPgs5Eb/2H3i+Qv/6u/cobr3gYTg93IxMPa0LuL3kzUc+yEAyPWBJLb7BujS/LnUYv6Y0vbzK5z+9aggZPhczB76D9mu97jDIPfU9PT7TNRE+53zRPZys0zuWIL68lCskPvhfIT6r2gk9khTHPqNatr3vLLG6CN7/PcwVuz1tsrE9miyuvqrjbD7jjo++6cWAPXR9271vLz8+XTEBvqeJAT4TJgY+9IowPc4pRjx19wy+JO9MPVlYCD4i7x2+FDCEvH1fCj01IMG8Y/QrPeZCBL6gSw29zP6WvgmTID6MEes+w9wDPCHB9z2C70m+HcgVvojdlb2tpIK+tYkLPZTkVL5HR/U9jLxQv4Lolj1GC0o+Fa7du2fW2TwXT/G9giAnviV9HD5xnQM+5Y8QPoqqmT3+4dU98pgRPsqOpz4Dp3o9/GWJvrGzEr44+ZI+4fsZvjHDwz1XvU0+HhiQvkhtLj2+jPo9ZQuBvcKXHT7H/SU+/3IVvn6MCb8Qacw+UwhRvnXOHb2hUSA/PbdEPd5jVT1+jis+tLEYPYZ0C75FQTY+PPfcPq+nP77W9ve9UG0rvFMWhT77KQc+4PaNPi3Cuz46uRG/1YTSva6y6L35eTu+cs5ZvGXWDL/UVqm+i9iNPcDFMD3obNo9wPW2Ohifuz761C+/ZKjkPWsxi745ehY+fOe6vmRjnb2FC0+8a5SbvbUIUL33K2a+Z815Pa7PAD5x74K9iB8jv+wL0D6n6E68cTEbvloqGL2bSec9iWo4v+hroz7Vygg+6O9Xvipq2T1cc2y+FaDLPWtPmr256ZK+m6DWPeKkKT9H33i81vWOvu2Xib1ynCg+Sxkmvu7OXz41ytG+OKmxPswQmT50AIQ+Vd2AvQQSJT2eA3290+4fv9lNrL0L5vW8oUsPv9OHD7/82TE+kiNavslVqDpWjoc9vJn5uzXirDqzXcs9UiJ6vs71t71kXHC+KvuWPUodiT2xrTS+IKZbPJNgfT26guU9/1OOOpd01L1ted+7yD90vQlGAz6Gb/49qHqFvl08u70kWwE9SErjvtzOIz4q4Fs9ZRCNPnF92r1gu7A9XnTPPSrmXL5GRBW9JZDFveETDD33zD++VJwXviXEdD3oJYO9hkYUPof7gj1FOH296f22vjrNAT4IvQ6/fnPyPABGdb66BLa+jWh4vUHJYz56pxY+QeZiPoas1r3hCHo8m6IIPUIIkj2SqwQ+vQByPO0QJbz6CrQ99DxTPs1I/L2VQYo9zgo8PiHb4rzjYia+Ba7oPc50Lr9Oig+/+zAHvsFbJr0mTAs+eUBsPlV+FT8qzmS+x1UjvomtPj2/SAG/UcaqPqs+IT1h2eA9JCtevS+1j77yEEO9PQ0LPoc0GD5Rnrg9QTncvR3wdb5BDCU+v2yIvstrtb7Mg869Ud4zPjd0+T2p/g4+lraKPszq3D7vwaM9TzpEvjNoi73i/Le+Kx7PPbPCuT1UmYK+mdpbPXARTz4FKp47YhaPPrM2Lbv0vzs+1OuXPSYkzr5B6ne+WvXGvbtRuj1E5xE+g+O0vQMVCj4bMwm8IJVfvtngeb602M+9uHUSPiwjAr3Hw1e+9kYUursSyT1DfYm+2iKnvlhQDj7TpLa9KciPviEZrDyHZaA+HgXBvPqIVz5nHr69cJj+vYBGpT3i4O8+bd2CPl3rAL9rGYg9qbqaPuanyL1dkUq8tEqkvuRhtryoNmw+Sdb7PdhIW7x/QSg9HUYfvjWeGT4vwjc+ArpyPZg84760lzi+MO4ePmi/7L1Lr6U9gHDWvt+L0z3JCy28/pAdPohog75i4fC83t/FPKZpmT1JOCM+QUCnvvwqVT6uVmI9WKa4PoqWYL1ie0U+WTzMvpi5GL7KrbS+6tC3vTWkmb7sVAs+XYT5vdzu1L50ADU9EsRsOxjK3T1oHK++PdgrPeYcLj4s7Gy/guoePm6Knb579MO9Z6uCPiRkkL6Mapk978zqvXrL4L01QBi/AT/JPcE/qb33mHU+FJq7vsB9GT43r+k6DLquvgqy3T3NgR6+ReH4uq4SqrzUPgC/EDB2vnSKIj2gsMo7gBhRPqFutL3m2MG95x3nvRrQO73JxSi+jJUzvlPxIL40clA8jndYPUmgzT36UAC/ORiovUjzcz1qzoa82JPcPSMePz6ZoZu9a0KgPqH5lb3ca54+mKtzvzyDJL6LA+Q9UNLxvaZL6D3JDTu+2KPfPYkpXT2RFT0+X7DKPbvea7uUSj0+FmGXPe9nkb0Ws8G+uP92PmCHWj5Brhq+3GfnvS3EEb5Jtyo9HWuWPnjJuL7Zdwm+PcRivn2+Yj6qErK8RCgHP49eAb6cBBo+FUUIvoFJGj103Di9tCaXvdO6Oj4/oiq975vxvVXpPz79yLO9Au/pPI9o6z0z27U9SoVfvBCERL46hIs9aCECvZ+EAL7GBZE9WtvVvk6TFTzOaiS/vRRMvYoD2Lx0GbO+RX2ZvRG5cr57G4e+ZHKIPjnI7L2+TgU8", "mZlkvVsZ3L0NCYa+JFtnvaN5K74r7MW+EbjgPLtlQz7EFEG9dOaBPkfBCz4F+k2+itNVPqluhr43Kzy9Dy21vjZH170M/u69t/NovEEIyTsPkKu8D9OyPo7IvT3OWo69buJBPsA4Yr3PQqM3ptO7PTNoMz0Nbm09emQTPnBhcT5GgCI+8c8lvgPuAD7Zhfa9YRqRPDGzEr5lkJo+fjwYvj6rpbtC9dG9qkCXPXUnyr1LsEQ+X+dIPizr1r1oTDQ9vif1PRduiDzlr3G9/2dBvTOQLj1r6548BB+9vtat/L1/qCG+aSP2vZuP2L2Lz+I9F9o6PYMoXD1AFSg+A7FTvsYOcb3P8QG+V9wnPdch274rcK2+z6PSOVbeyr4aUUM+bTxfvmHA1D2EA0Q9/A5DvrQ+dL00/nk9QmSHvcS6TT4=", "/QbevQ6ntz3bHRU+PkavvTBn9rtNmc49Ei1RPq8i+D037tM+o0ZSvq5INL36Owg6nignvOa9ED7XA6Q9GZpgPuMAET5tLzm+QAS1PVbAJ747Nf89+o0Fv2I6wzwQbNu8YPXAvbMBSrw/O6++I4s4vhy+BL6zPmQ+paCEPqeVSj6tqtQ9GXCHvY+rGD0VetG9b8dYPjISDz0JaVe90+Ekva4tIT4V2k6+VxxGu9dOAT62lCm7yakuPoKoiT26H24+/42cvd1mPz2C0AK+JRElPo6OIT6gCN2+fGyjvZkXL74uCpM+zFxRPi57i76spVY9nlBEPCfM673s2jK+TCbrPb7Ysz3b8QI+iOwwPWYrIb57XDc+m7UgPcMElj2W8cQ+BOWEPdN2KL2yuqS88ZhFviZRA77Jg8i95u4hvsnqQj5/VD++89YgPs1/Nr512Is+hu3vvdXcir6rS8q9UJChvPSCOT6rjeS9h70XPus3Dj7vYb29Fa8Lvpl9q76Z+Zq+Hz2+vnytc7tzTEk+wBKSvqHKCz6fCNw9e5KdPUrHiL3Dd0i+QPK9vlkK2rx6yiM9CakMvFZqE77g0ks+n0U2Pn87izyiEjQ+No+MPI16ZT17Dx4+HG35PbMrpr3PCE2+RKX4PTVctL5xwlG/cawIPV9QOT1cWQw+qO8XPVAPTzya2Is+yybTPUZkkD0wSgS9gkYEPpaIdj1UwXu8DlQhv2cyKD7GDvW8WmHQvplpjb7RHKi+fooPPs6pGL7yd42+xVvRvO+2hL39mWk9i0XqvdGhj71T2G89dOvUPYYvjrxnGb6+QTF5va5sVD3QowQ+eAcxvnDsBj10bqG9oE2TPuxperznyTc934gBv6XSR74EvAW92CvvvZU7kj7FBza+GdwPPPMLkD3iFdM9a8fWPHwTPz7BCyG+vmE1vqlcn7x6NTg+JaNWvdpg3j3K5Dw+ledYPv7xCT5MG5M9YPJ4vgTSRj7kwse9uTaDug5uw7t2Wfu9aB4RPk8Q2j3emE4+JcMfPoWPQb6byfm97JYfPjFLHr+LhFO9mXo3vATHV70bJ3q81S7au+JV5b0RUQk+wxqXvbk8ij1HZpU+XKAYvjpHbr4qjRq/6W66vijHR77IIxA9s7a+vhTm8z1yYIo9OEtkvqCtn71iXRi+UFInPlDLnL3smu+94Mr/vYkYAj5wiRY+ZjjxPIjW2Tu6B1++oT+wvU4sOD2Oj9g8LvvAvotwRD46n4M+jnBCvrPbPz7YP169K0FePdf6Gb55AHw+QYaIPTtkfb7e8rs9Q5F4PXV8Qb6K/A2+oiGwvQ+H377rmww+StbFPELbHj3toOi+gheBvvnWyT7tx/89JqGxPdXgWD1ANKk9bQTzPNnY/DvEih2+M952PsL8dL2Ehnu9RlgCPSVzOL3x5oO9bsJUPWZfg7xitUK9gYwuvpomwL1usVe9Pp9evR0tUL1y6SC/h2DLvS3O5j3VSSA+Ed60PWUN3j0OHhg+pkOvvm5UW76Id7q+DA2JvrDVgb3XjJS8lxQQvl4rLr7pcoE9neC/vXhemT3Ddvi952M/PHsBMD6VrXk+p1PdvVemEr1S5qM9BCMOPk1dhD6ZMRK+QC/Zvn4gdb1dtW29miLTPWGXhD16MGC9ogXPOUVvv731opc9YMlPvhntPb+AOBG+9Wf1Pcmghz3Plb09QHX2PRNRrjxpM6A+9JDEvYaOyLs3+Sm7yOglPVFl9739jQk9i+wZvvwrV77YgIA9Tg60vHTHo76Dl289e9YbPUJ0Z728XBO+PolVvvDUNL65NTI94M+mvqM2MT6Yca2+3F80PfA9Kz25+9U9OhWNvttywz04dlo971MhvmsM7jyr2BK+PzLYPRnPNTzCh8E9W6aKvqr0DL5zwMu9wZ7dvfnEsTsnUYK+sdhxPfxxmT1DXuq98LQ4vZV8pz3Pnj8+tmDcu5Z1lT2GtrA9hS9QvxVp97x95qG+mMh0vYXkPD6ccdY9nNWMPTHsi72j0+g7XAV9vrVIz74bAD2/9kwUPqstzTuUixW9xP2HvbHasD4mW/w99YNJvX455z1Y6ye9tvm2PUp8r77xfg6+YtofPZL6VL5Ufac9b7oivSmIljyI+6Y9QBgEPv/z4L6BuHO901quvRcICb+VrmS91lDuPeEguz0U+Uy+4juXPiAvIr/QnhS9cqfuvJsAFzyC6EO+3yBLu+VJaDsPQHM86VNqvr9LWbzjcM29lSebO0nBhruHnHu9dREZPsn7kz3eN3q+nXllPf50ij0+WBe+zkSxPI45mz0yPDO9R5J5PU8JOjxdEMM99b8UvoEk575AOI69pS2CPaSyOz6JqGU9REphvr27cT5RK0O90w6+PZWJCb1OoY88TQ0lvh7HRD2xz6s9M3Ifvtw2mD2n0re9UcvWPTTL9bq4Cb4+Oyimvje2vz1S4ki9oFkEPdiF8r0qcfm8q2U5vrdbGz5q/Bq+SgqwvN3kR76jA4891G2cvjOGBj78zTa+ItwpvvJ+ob4jdy2+9/WxvYi7c77YRlq9r8L/PUIkYr57tiO9rgiFvrA7Uj4ba4g9D6ZUPgya2LyE64s9hUB+ve9+hT1LeJK83GpevlSwUru1vle9yQ8nvg65hr4wUcs+CGxCPgTLXz3SoNQ9+H8wPfyACL7SZoS91ylPPdoxD793zpa9Uf+AvgvWzD0GDXo+VhkyPlVfpD04pS0+DNRwvtSfar4c4HU9wrhWPnPrj7yaFke9E2w1PTPBIr2wWDm9tg22vWztZr71bR++jjgLPrk2gz6O7w6+zEbYvYZDaz7lGio+N8XeO+pspz0yW0A9X+WEPgoggjxqkpq9/ARDvkYsPT0CVNa9B0pCPeTii764OEE+wIh+Pk6m771oe1u+Wn0WPmp33Lyi0nm90hxGPP+Pmj5i1JU9JiBLvhyLtbyU+Tk+WyQcPgM9OD61dog+3USNvXFStj0yO20+6DfsPZBBtbwq0LU8mPkwPk6BYj6CsuA8gXQBvbRbtD4ejFe9ZZAJPkP+RD1OldY95Qd8vk6CzL2SwKm+P4OBPtMMjb2wlpq+sUSpvfraFj6HvH895kT3PfalNj6aJyw+Uv0tPfeBj7zOYRO+Tro9PlF6IL5ruSa9JdCmvfglnz2ZWZK9prWcvoc3Yr5P+oS9HgXcPWpG3b2s6kq+05TAvqUkkLzN1L+9FgmBPjnlurxuMbs918oHPQVnSD62+TY9oENOPc0RkbubmA29jlvOu8vk5T33mhk+m60FPWfr1b3RU9k+gM5mvhlgCz662Q09eJ/6vWi/hj4EESi+Q2PDPP03tb1U6y4+o0EgvHgGFD5+kFi+MaMBPtoG4b3VTpw8d/nKvv8DQL666bU8RM5evqkffD5gmmC+rSayvhjIXj2bct+8P7moPBPd8LwNIim+sPMbvpU8qr5vCqK9s+KNOm+L6b0IioE+uCMCvQRCRL5ufCg+/bjVPcRVLj6PL6E9HNiyPfl6VT45ieE8dTudvQ7heL5xlD4+qzghPm6l9TyDX4A+afjRPaRMvb0o/vq6u0U8vLHbuD181yk+VE2DvJEjoLyU/Cs+/WJrPCbGwb4Dh1U9yq3MPVc1ej1TveC94tHZPe/EeT4lSEc+uTqTvVEbrz3JN9k9iNuDvYAyUL1P/4a+HqrVvHwMGj3PJHO+c8WRPRIOrTo/RTa951YSvtlQAT0mGRu+rPkMPv3NiTyV9BS+46r2Pe6cuL2YHV2+I0mtPYwIJT6TPIQ90G50vqQMHL6jIYG9SCwtvJY1sTtfyrc9KipMvadJqj4MBZU+Yw+Vvaw5rLy1StM82nOdvTPspzyUplg9DnWuPiEWRr/q7cq+cIOSvoFqkLxlRDE9E0ZYvEYXdb2Z8kq+MgK1Pvw8KD7Tt6I9R67tvMBJEjyramU9w3Q/vjPFxz4YkNy+e85iPS3COTzWaf69ZfjUPCahCL4ZPtM9J5e1Pvwgsz46zIY8TOn9PTDq67zOoEg9g7/hvPfhiT4IKBw9SVmVPlU9m7zl0b07jKRqPmKcmT6HHu29doc0PjbQeb2Mt6y+Wkkrv90Nmb3smp296YN3vqi0pz2Svxa+1LiSPYuwgb7Ohh49u0E+v+JAqLyTgVk+e77oO5yMVr5qXI0+7MGBPfxSST4Bmrm9r3WNPdENND7jswM+NLSIv7Gixr0Mlwi+wvE+Pm03/D13xoO+1eKWPUth7LwdC5A+M7QXv22r1z0dClK+bXxxvrZshz5vrv89lgHWPeCGAD3sJlC+l0sIvw0KJD7cD1++7VATvmKsMb+JIxi+2Wg9PjrUKz6kGZo+dp9hPn2Qzj7Y/SC+TX2mvSJuIL6Sgk8+agLrvZb0uz4MYNm+ZoOGPvB5P775xAc+poQau7b7SL5WylQ9sUifvnOY174DMxY9nrnKPlRqWD56UVO+sUylPYHgAT0871W9tJJfvXUpSL37nuu8FXk9PsVLMD7dEwu+cKDIPFVg2r6oBBw+6kRUvQOsPL9FXJe+VEnFvu9T2j0RAb893B1GuifXWz4Sy6y/c0B8Pl5Arr7apaO+jNfDvak7kD4s6I4+eyOYPgtTsT0iQpg9XtnjvFRNTz5mFzG+lWPGuiGQwL4Hd60+GdjmO4sEK72LBhi+Ae7LPnXNJr9n4q28soKdvSKtRD1ZqEc+jtMpPmBSkr7LozE+P8wjPSu8uD1pev+94ygevg93GD41PF++zHsSPhy/v7xGTty9vZNnvX9RRL9dhoI93Q8BvItuJL6IRqo+NySaPoAYNL3/idu+KWf4vUQGT7q5Zq6+5Fq+vbJeBb5RRww+z5KUPQmBpr4+2t++xJezPZEZrT14ZA4+RYpvPaPj4r1xOLc9mVjcvccLPT4RuxI9+JMvvuxxZ76iWyg+L8A5PnasI77JbAq+9aSTvhTRkj3tkes9ONliPaK7/Dy2see8DW11PrMA+zwtrEK+fNaTO1edu76KRyC+8G8/vlWz4j2ug6I9ity5vptmVL7wlFe+awG4uRYOrr1ljS89Zh9CvgmbTr3Y4jm8DFCqPX58fj1MZRk+o5qfvVqPOr4FOHO+zCfwvYKEtr5cf2e+gyuDvhfAl71b/D28Zc8BvnpsSj7+6GI+2+aIvdx2x72AeeS9KCcWvthkwTxDLCa+8FQpPmSCZ7xq7+O+LAkZPYzWMb6MH6y+pH/qPTCf4L67HSS9zNHXPMTgTb5deM+91xRqPeokRb06Yu077U3LvA7bF706t3++beh3PQrZUr0cBky9vg8GPppzkD4qn+a9GgI3vWI46b0oWAC+atBHvU4GHL58WXS+/CVQPi66drvhvS2+CJaDvqWpDD4SpvQ9hn6QPsDIvr1IW4g+GvIhPmxcV71oKGk92Rkdvr9X4b43XyG9NgcKPn9REb4Sovg9EsMlPQAMYjy/Nzu+YoN6PT5FK71VF4c+HGeXvlncw76Zpta951+GPf1FgbtDi0A+Kf+SPlTvwL2KEpY+pcCkvjKjT76wjzE+v+62PsZhF7/QPHE9c6/YvfDlmj3hmbU7y1gYPYotoT0vOtq951OePgYIyruG5De+BsKdvsRQoL7Pbak+dAeuvek/Cj0Rj1i+8pghPiII/b0yvQ+9Pg24vSIL7ju0BZc9ql6KPVJRRr5t9WW9erBEvWXJv76lEwu+/quUPhF3ET5clEG+r6lavTWvnDy6D669mny2vgfagz0likA+fXEEPteKID7Z31U+HjO7PlSVqr3tQp488WWBveykET4Krko+B4VYPq8wnT7Ayz+9cbpSPtUbBD4JgD294lc3vZ0eJD18zRY+Zo1nPRduTb2Jyh8+MYptvhe63D1yveA9AG1+vsMei73tfPa9boSrPXdGvTwyrx4+F0BzPq3Q7r07G3y+jA6CvbFcKD4Kddy+iguUPqZdlb7lZjE+E+Sgva+Eez3AIYM8SbcSPW3zoT25p4O+tL2APlWZYD7DSY8+01dqPi9c0j021LO9BLJTvqEP2jx0xoK9QqgNvkxMKz5z3aQ+IQ48vsAgdr0rrzs+SKoMPg1ss70iFbm9jp5/PYveeL5HvK68jtlBvlNslT4IRWK9ZA5JvErW9L2XQ+O8qfjeO/z8ub6roHc94CybPcIFQr5a58O9kXZrPkMTYj1OZq+8P0MtPtVzDD6mU5k9/IeIPZI7Kr8GjDI+LlWZPmzCpD0Xn/K9XgeGPbc0mr0su5S9P3BHPe+UO7y6tXk+vdHqvRfk6rxvuB+++/HBvY5DiT1TrwQ9zR2BPFITgz3Khx88jiGivTb8qL4cmCY91MeoO5DjSTvpkQK9sf5MPs/CXr2An2Y9CBdavppRWD6Pvhc+mLwevsV7hT7672g9SK1TvjwSZj0OxV0+tGA+vmkipL5WbTU9HN3EvdVy672EOtI8GlusvMKdTj61v7W+KVnMPdI7ML6r7vw8fyMvvQ6RUj1j8C0+WvYlPcVDjz6rhRq+MiZCPtDhvL28CmG9jsaCPu6mFL7CeLu+4r8qPdVpHT71zg8+XfV6vaHYa73Rg4g+NwcXvYzcT774ona+mkb1vG8h4T3QooG+KuyMPoSw7r3i+eG9voyRvXJjEj3LH0y+lYURv6CPgT4+bzU9Q/wJvX6Usj2s9xe+g6PavTgQXj7xpQW+M3/vvXEEAb+q8rE+2e+6vRMAtL4caEm+nXcovaRMZr0OHyO+3yIEPigrwb5fE4s+6q4gPi+fN75YMBa+I2iqPQr+P76GEqM9mm22vcYuHL6zszy+3dQivYjVDb6vfRE8hZKfvpKsJz4QMy++0NSgPIYk3r7CEQY+zy06PUvLTr7kccC+t4yePaKwIr0ZYqW+cZCMvuMdUj7ScFi8QpsPvgz4rj0oT0+8Q9F1vwB0P75GNmA9hyY9Pv88gD7LXDs89IosPXJTur0fxCO9g3g4vs9N6b2j6l29YS8CPRIgMb3FgiS+WDkNPuodcrwFIKA+baWzvhzwUrpwwt68YDtavqDWCj49evU8zNisPSOd9D15146+MnYXPNGgC76cn9e+EbwmPIb8QD6kX4A9oGZYPfowGz7vO24+eRmnvcS1IDx1Kz2+DhgJPyKGUTx2JAg+gC0vv1n3rj0+4R68snADvp+ySb40AnC8zQl4vqx3Gb4tjJO+HYdOvoELPL6O7AU+Kyl+PYoomzxjaLc9eHtFvZkwFL5XP/k8z1aZvE3SzLw5V2Y+lxsPPthJwT1k05S9vFhZPqT0jL7Q/uu+b6IlvvVHJD1e+649NSi9vXYtJL0cgYO8XQGfvHtw+r31avS8zfafvhPMBjyoM5s9aP4uvg+LOD5Spf895tN+vUxZ5z3haCY9ZU4CPlHkEb18TtQ9R9GSPTasK70AoC++j5izviN4gT71QP49uaACvpAJYD20SDo9811CvhAELLyx0dc9EZyaPTVxAb5qROY8W79IvpFFxT0LGYI+JuB4vW270DoaHlM82A5UPTDbfT6BOwO+fiWAvlF9sbzpg5M+O6qOvhsFdb6x9Ow91ppHPvbklT2hUVK+1Tgkvn76FD1Kcsq+KwtXvnbCsj3f4/k94R0KvgoDwT0yXKc9O9MGPiawRr43iGc8trHFvk+gQL7V+0M9s4QAvgfkQT4aals+/6akvreC071Fjjg9S0A1O0Wj2L3GS4C81X7kvUyGhz2+hkw+vHImvLCcLT6v+YY+SOLHvdBSLj4zvZK9FSvdPBq7Ur4LZxE9PKJqPlWDob24gOW8fyEjvWQBcL0VQaM9gEquvLGBg77RcWy+pYIGva0f0bv+4ie+naWiPp39DL5YYyU+XgpBPuaxKTvRuCw945STPATcVj0drKc9gyQfvpGLSD0f/oo9+Tg8PpehO77MRN08xHM6PI9a3L1ns1+9wjQJPqpMhr27/o48uJoPvaDewDzUI749Pdkcvh3HoDyd3x290xSZPnZyfj4xyKc94HPovpvayL4LAzq+ijPNPUE7gLzm8eg8d4FEvGQZnL029oe+jOqTvhwPpzyN80G+No3QvS7XGb3t7JM9S+8/PtMa3jx479o9cCdaPB9pur27AIO8cKdVPQCYJL5OPpw8hzkvPTJGPL7G9+Q999QKvrLZAL51g+49DImEvbGajr0c0AW9PiwhPVoopb2n1aO9QnknvT1cpz1GsaS82eitvIsEwb3OXLs9MZGBPNBll70MXqK+Jla0vs0yQ70zY6k8hSBJPspQh76NNjM9BrcqPjw3q71jC7U8VM4rvWdX8r0Ckdi9yPnJPvo9Sb0hxws9OxvtPKn6Ur2hIiM90ICTvnmoEjwqfM08cfHtPbtA9L1QUR+9xUr5PQSmaby+xWc+X18NvJZRqLxMFEa4GRVlPTexsb39VMi8D8VXPl63Lr0FEee9kD9gvqoART7APDy+tfZkPpiyiz1UAy6+x1AGvgjHHD75V0E8uQuAPneozj3ihrk9YciZvVGX8z0IvOc8x35ZPo2V2r7YBAE+5OQDPialE75HUdU8SAJ5vaGkYTzpDwY9WqxavglrOD4xFZ09P00VvaW4Wr1k+iE+TdNvvWAAmT4383O+ibosPhRQKT5mDiS+0xOWPuBAtj1WBoW+BqkJvHrhyz5pBmY9s6DBPTuvt749Ous9X+C1vR5ZcT2pY1q+5V9CPqNmcD3bp849AxsfvibhuT2z9g69Z35tvpdCnj6l0aq+LcxLPBhfDb6F/si9/+8PPjF8Mr1puN49KMTDPYeI3r1X2Oi8GFytvl+RJL32QlI+iSyTvtOmUb1Pova9jGUavi8wq757VzW+SHHZO3ORsr7nOOY+gybNPXqLAj2rjSi+J8dmPl9Zzz2l34g+QyNpvh87R737jJ2+psVyPFwbFL47WyA+noJ6vcVsCr4SOmo9MZAyvdloP74JUhA+d29vPV8RXrxHgqE9U/N3PUHxW7zQDh6+avTiu8rcwr7zx9O+Hs6UPRuNVr5iJB++2XTIvXGTiT5gHwC999R7vlMoyD6jHJK9MMteu7lLATy8ZVW9szrrvDs2pL5DMxm/aSPEvmizWD6g8GI+bSOVvoilr742obG+4NuOPVVrsTtiTqC92iyQvjdoBj6E7bU8IMYYP7vwdz34eOE9uNr2Ptidkj6kZPU8LkAsPd6ERz0XuOc8XitVPhCFtb5l6ZK8uLSivhICVz5VbvA9atmgPhcs1TxSiUu9dZkVPuOq3bwz1Lm+uwCOPsX9RT7y0GU9TfMbvEraRTxRF6E9lwgEvxaYdr2ICGM9w3nTvFGCPz3nRxs+CbC7PQue+D3cpA0+OuGQvdmIRL6Q0Z2/C3uKvlBVDz3Bkkm9TZgXPvuhZb7aQQu/wOE6voLTXz7MX/W+iN/2vUsRwr6UcMG+Ktnyvi12Vj6kt4E+zxliveapuT176oK9FiUZvqBTlL5dUhW8PSAQv7blkT0ID2S+ZdKpvkeawr5SKse9Z3GkPbPuK76tUzk+MTKfPT/TET6wsqC+CPHhvKadCD53SkS+aAAaPjojCL9CGDo+jt43u8LP7L3y4Rg+OYFQvFy1R7zONgC9ukdIPhM8YTwroEm95nw4Puhjw70mLZY+Y5NRvYLeMb4iGq09mZSvPYVmAD42gZi+uTUDPo40Jj4w9Sk+WRIAvv3ccz4CVcy+DjxWvZnAQL6oHRO9E0UPPqRooT42b1a+XwqgPqn/Dz20yJI8Cc/HPfICKb4Q4Oa9xEHLPeyi+D3do0a9DPWkvG4yVj275289vh51PvliP77ZvU++pAoePg3os73k8oE+FP1uPVewUz0szKG+kQubPoUErD7Ov9S8Xa8lPjdkUr0p6nG+pUZ1PjHi5DvCDQQ+o5WtvW4G7bxKvIK951NuPvkYfr4XXAE7yCyRvrhQhr2YxJe9YAXQvtjVRz5uSg49mCKOvQ6YIL77qAk8W80SvFq3j70F/FS+X2QNvrYxer4j7Gw8WbiYvklqf7xd9hs+RRYpveQUgD4mdPK9RskdvrkIgz0Qps07ktDPPRRGSzycoTQ9Xa37PQNO1L2sRw8+hA1NvkiwKb/XtU25GMc5PnCaUz69poE++hU2vou55T4UxIa912/vPPhXTz4b+I89OmCxvfoY2b1JR9u+m9FFPmTW0L1gOpS+p7+WvqVBdL21BKS9s8auPiNM971f3bm+PzzJPuqvBr8GIyu+KjMCP18uLj2ZBzc9L92Yvhb43r35sYs+JmpvvOrAe70Y8Du/bufhvjlQBD56STk+8XMPvl4KQT6OSSI+dAjAvr9VxD25zmu+WU4jvancID7a0LA9X0rIu8tpaz7owYc8CBwuPZWcLL+VSQu+qLRSu4qA/r1hDH2+Gwo5PaVAJr/l2kK9Su1BPUIMs77XnYY+bZIQPsXtBL5HwNA9yPk/uqoF/z1KHg6+irCSvhwtnz3s1Ss+500PvI+jMz6/mdO9XHE2ve1JFD7yQJm9CknnPa8Cr71c0e29G/KHvSY86r5DXqi9rjBIvjALxT3snnI9OK4JPtYcZL2dJhm8fKGVPuTuAr9k6ho+k+gGPQZ4Jz4kbzM7jf8mvsjjhT101fm8stdVPVnRgL08szq+EvUWvt/4ND7xp6c7g2o/vv+9obzWdxA+VrkZvcKx2D1/M909pp7BPZ03tb7Bb4Q+5KK4vnftn70lzpu9oC04vuSNxb7SeAE+IzLwPTJysb3GJcc9LXVrPjRnmD1Tdfe+W4E6O0ZLsT1Qi+e8qX1EPT9ejbxVdbE9RT+JvpBAST02uCW/yM2+vBd0Cj6Mg7o7hmQkvIww8D3acCW+DQ6PPaBu2j1im407um6qPV/vJL7R61C9ZrUYvkiigz1uqfu+VIicvrQif7yUO609N2Usvkbr2LwlvwC+AalKvs3hEDzy9cK9xAOhPU4YVL5InGq+AJSfPZEtVb475Z69Uu+3PefktT645K09uhYgvmHwg73VIQG9A4+pvncn3r3AAKG8HVVaPtxcPz0hLsu936syvtOXib60uuY94Fs3PjPCLD2Rubc92MY0vVmlOb7/N5m93hR+vcKDMD7n1q49n+bMvdUeUD6TPo09DZJ2PL6s2jsCur49acAHPsli+L5ZeMU9YkQFPZm5Fj3rXBk9SuPmvTgiSD5YQCy+atxZvSw9gL5Bigk9ONJbvr/o7z0feUm+rhRFvhfXpz0fTSS9bveqPGoh27zMB2S90TSVvfMqiTwgxki+BaBOvvuYxL300u28q3KZPeH6BL1vd209IEsEPkNb/jtnWTG9oVeZvFZ6gb2ZgZ2+Am3RvZaP2j3oOKm+xeI3PtzyujsrVzw+MKT2PXxPhL1hk5K9fcd/vrtXDb26N1e+YLg3Phq2Hr61Ki89gpMtvpMZsz23Tok9qcggPEsiSTxmLiY8BSOavj4VUL5Ikb09lVSFvryeZD3QWvQ9jy2LvoRJyr1mYNg9hE49vr69xLxUphs+K+Davmdrf73bygA+prrSvQBqmj1zeEu+kdSmvc5sKz7okMi9NnKcvJ8UFT6bJ7k9DkHzvQWTXL24sEE9nY8IvuEfZb7CFy2+190zPtrn4b3uL/49he9MPlqC4b3c70W+dxCuPjWcqT75aCk9me/5PSpsxz3ZREY+CFx+vJzzp72DeNW8v9j0veKKpb4Umhm+moNsvrF6PT2/9by+ZjalPVMcM72wyvc9Lx7SPmeMRb3v9Hi7bOhJPjTjVr512NU9rK79PIow6b0PZO49tYDVPnMlqT3oXM89fq3cPfNomj5+g8G+FBW3vn1/m7wAQyu+sLL0PMjTuDx7v4G9Zx4jvt54pbyaiYE+d6KQPo/LOb7dO2g9haFcPRWjK75ClfU8rlJZvVVAdj3fJuU9INdVvV6pjr4wRrA6bk+3vP2YPj3dcws++EpAvldYHL7voWW+EQfjvdboTT064jo+5Jxcvv9Nmj1kP5m+5JGHvErUqr0ro4G++p1wveOrhL4uR0k+QTGIO//Vhz1ESK68OpQfvlKDF77qrI+8PllzPiLlwDycYqm9thjTPhC9lL2vX1W+1sb0PbaloD7Ckr29aw06PchwCT4fSMi9BSYDPDeCqL3SkWw+ACFpvZrjRLv3DgA9pWahvmHDD76LMHu+VgfZvRzsij6dLIa9TM5IPmJ6Nj5KJbw8OsKAvRo4XD2qLCC+WK/pPpbD0T6rZkk+eGFnvhLhuj13qIA88NhUPXtYFLz3nYQ8rhj5PeAJLr3q6RC+YGOxPI12MT48cXG+vi8JPppfKj634zo+A85SPkirCj4yJ9S9N515Pg8Agb4EEoc9hziQvliBbj7JUSM+dWl+PgLzVL7dBZa9ANNDvRwUhj6pWwO+Id2gvt+4AL1ISke+8bVmvgAXwD6RsbC8oG0EvlCS5r3uPja+bNeOPXTiB73HZi6+TSrqvZrXRz6Y+kc+/dqdPuWwHz7qVCA+Y6G3PXDa+bykei++6plnvCKCkz0/8AE+swFdvkIBPD1P1A6+VQoQPTMUiDz3fVU+yixXvsyPkz0T0Ss+bAjOvTMEYr4XYaM9qOjWvewn5T2SHES+ishxPRfnBD1Jdzu+aEwBvLCWKz5mlzy+8LMCvVd6gT4JuVe+GOt5PeYBMD3Fo+k98xqhPiXJxj65h6k+19ELPbCCs73Pu609FW/PvWaTjr1REPa8bei4PEYp9L2dh648NRIcvPjdWr5qeOI8hcUJvcq43T1ieCk+Q4UOPhmGUL5TBSk+93M3PeqjYj7ySvm9ogO6vsAjKz5GIOE8iJ7XvS8kFr0rvLW+pd09PR6fCT6GVjc+ZPivvll1nT0BXN49xEX5vdC+yz7m7AY+/MynvZ21m71lQSy+s1XevRJGKL59vha+ep31PWvhDD0N4VQ+v2gqveiwBj9Lu1o+KAoMvYcDULyckqw9F3VevjCmq71oh0M9DU6nPr9HH738n9+927d3vd7dir42Ewk+kJckvrArLD45/1M+HRS1PPbKcT1BG0Y+9yjiPVeZCL42jy4+sPNtPWWuHj6fMa89n1yAPoTgMz6XkKw61LjJvnqckDwVKYQ+FrYyPcNQmb2qF4Y9MyQ3PgkVpbwkFaq954o7PnwIKT7X2H4+4s0/PTgrnb2QhKw9Qe80vmTsmz7VVTi+dWQNPlJDXjxkRps9zJimPSYaAj1p9Vs97qbxPMgQaj0vHvq8eTECPv4jCb6kwHK+IevyvE9GGb5IfFK8y+LNvomkQ77G+WY+d8CGvgu/ob2rVZy9zV2HPRs81L69DhE+izv3PX8cZLt2IbU9KIPzvclHGr6RTBQ+woyAPu5yQz6ev7I8Xh23Pql4jTz7G1s9p7ZGvlBje74SJxi+hY1tvTVz0L0SIAM9RsrrPc1tDT6n3sw8PZOBvb1QsL2Vca097pq8vKYhSr2lpDi+ol+oPQTp0b25k2I91XPOPfzvKT4WMy09NeJRvfz9yTzZcUA9Z5tmPd26N73RIMQ87BCmvZtoTr0HE1c+G8aAvcaSOT6I5wE+t/FEvlBBnb4YcLo9gCM5PqRPXz6ttm0+/B+avpvzFz38Xm++7YfMviPrUT1mp129QTftvf9dkL4yemk+6InrvTg8Hr036Km9uWGQPr4Gjz3GR6O+v4GvPWZLoz1/G2M+lhyaPjDGV76MeAS/FWONPVPO+Lwk02W9Vusev61k9T37/EK9jAREPvPpEr5qCYo+L+SqvbaegD0SD4I+cSLKPcYGz70Hf2o++HJYPS56Ij5IVWG+ycg4Pprcdz5Ebjs+yWvkPcFeQ70fd7a9xs0YPp/DgT7hoxU+64gYPl3/nj26pvK8gE8uPpQtfz6dlWw+oY0RPmzRKr2cMYE+UHKtvpFptL1xnN29qjwjPgho57xYs0S+PxT0vWOqnL4b44g9HhZFPpfnMr7kbUQ9XCpEvhgV3rzWM4a+PxNVvr98y723leK+mc4HPja4s7vDz+s9+ZKDPrnahT6ETQo+dLsFPe9+XLy3WRg+oz0hvvmScT65pFy9Wob2u2E7cL0iwys9DBb3PSshyL6fP+K8BuvQvUp25709yoa+pR+qPuwaCj7JQrE+1J6CPW0FjT6ZZii+s1jHvfnkMj7FAnM9mfqLPXzD8jvt9cA959wbvqZXPz2itZ6+01MHvYZ/Yz6DsIq+t+KxPJx4375YD0A94xXavl3gM731U6W+aHmPvnYt1rxAPPY6k0rXPY4e1r1/wwy9uPoVvRoa7bxMyAY9LdWwvLaezz0a8LO9mi6fPgcznD3lxgk+E03OPb0jij0Ntvs9V3qGvDHEAT0NjaE95ErOvU/OhT54iQo9z1sUvej/kj6+poU+QIGQuoSZBr2U57C8tBa4PbLZkb1g23c+8fGKPuHEqD7Gx0s+DLpBPofdsb7hKIS+uaphuxOmQb2gt/K7hDu1PebU5T1UGdy94/QiPbo9CD4gO5+9YKd5PQqeEz6zytO8bVeNvr3RDr3NMAy9YEDgvY0VzT1/Psu81bFMvuXQyr5lX0Q+/1hdPjKhN765PSC9xKgvvfrlVT7if1Q9jkVwvoQmuD1oANS9ugomPks3uj4cH5M+EBscPuGq471cMng+kpq+vJyclrzq+Cy94A3CO7evrL04KlA9w4mfvqMzlDtw/ng9FkucvbIQ6714eYk9/0r+OYkybrz39V+9qBPxvUOFJ779GKU99X18PZFjoT1SHui9eM4ju7OKnj6k4Kk9pBJaPgKwTb4b4pQ9xHvkvYunrz2SCsI8thubvv0v5Lt2ED++nXXtvWEghL5Sskq+Wi6mvaMyiD0xfA2+ih0+Pq4Cdr58bZE+vmZAvlPKTr7w1we+N34nPa46kb3L+RG9Wuk/vRouWb7A+Du9Ew+OvmtmAb43BIq9qKtWPmeCQ7u/3fY9F1WzvsTbnb1zLh4+YBGMOsC8vjuCq1c9H3nHvrpvOz1zOJ09JKJYPUicLb5+hSs+eTF/PZvbd75ACO2+gKhNuxDWtbzIOT0+NxIevtkuvT1HogW/gqPUvaKeWL7urYK+VkQnvrwhu72hJ6m+l7ZWPP8RE75hyjI8Lmf0vNy1+T3FyRK96BH1vSi4oT3LKsS8bmUOPhYFljx74Ci9dnoEvvP85r75dZ0+F6ipPVq0AL4JXgo+UrPhvacmdr06Zou+o4OgvQXydT6zlJg87zRRvr/xgz6mVrm+xu5sPdzEI71B45u+jJXnPZae+TrNSJs+MaX4vLs4bzwrpyO+2jMZPr7fO77JQh2+rQtQvoIjhzzIvPM9c/RXvRnKXz55nKe+Qq+HPhvwCr0U6vs8K+EevgPSaL7qpVu+Umj/vXSF3D2/V36+PkwHPrCerb1SBYW98BWNvd0OZb5f9Yk+8pFZPtkbiD53/X69TiMCPonOST5WL2U+8lg0vtcdEL2iJJI+pK2Evahnwbvxjhc+P1IJPPsC+b37XMk9PfGRPUXDQL5wIaO8H38Mvmhkvjy/dFa++0C6vWc4Ar7xuLo932a5PWlCIr1rxD08GtGfvvK7AD7L9788sno8PpoBrD5qo4w+zGszPdxJ+T1n71W+26yRPTm13L1MJnK+auRtPgTv4DzggSW+BTA9PsCQFz0ZhLG7b+oevgZp/r217wq9xg2APkl5Ary2ehc+u/lwPQw3WD2/7Vq+TwtfvdXyST7geXs9X7A3OzMERb5xtK6+8loovrGNNz3tdU68SbHsvg2h3b14oZE+PwtGPiRIuz5uIE08r5A8vbqczz4rZYM9mWyYPQHFoT1EDyI8ynWMPdg5Az43FW+9pKzFvHpRAzzfas69Ki1FPgjFPz4ROJk93JHzvFNZRzz+/u46DeU8PUXk0b4kRag9EQhPPOJI772jEEC9mQEtPs6qDz5NKLS87hYTvQgndjtMF928pjBpvuWPjb6B9De+iqv7uGMbG77yKhO9pHmyvqfnKz6beLg9Y4NHPqZQ/z1oHXm9S5ujPUxWAL3NRR4+OsU1vc3ziL26F5W+XmqjPanC5j35F6690bLVPUJhSb7R3I6+U2T/PYOOmDukUAI+NCJYvgGe7j4WC2e+5YkOv6ksQz7pY/k8ovZXPuJ7Qr7+Bwg911HQvXFOGj7jdRm+WfWQPThH1L1vgAm/luwEvT72sT4wujm+Im0/vhSIKz5UQEe+82W4vXi/CD1XLYI+giEgPv7w4T2M0aQ+JnBIvhtfhz5UX+e9liIVPhJ/pjzvrp4+EiBeviPkDrzE3Lu8SRxIvnrqmT4Blki+d7mpvmYxjzyfS2U+XOEYvYTkIL3RK6y9St34PUC6eT7oM4a+zqHFvFQdfbzNDaO+9J/Bva+mrj6N3RW+C4+LPTjQHr05H0e+lU51PrWIhr4Cfrm9KmOUvaivDz6p1gS9QymMPf5L9Lyxq3A9LMqwPrxyGDx2HtM82AbhPZFVCz5+hwg+gy2dOzFReD3K8OA9t8+7vam2Dz7b5x8+uFlTvCL9GT1XI2O9IIH/vRAhFD6KPY49iW4VvTquvj0blDA++AoTPn5U6b5o57m+1rdZvtYZGT2b/yA+z6AxPiszKz7iC0y+WbWmPjwJoz0S2n0+ehsbvk9LQLwikPy9hFdiPo/EmT1zc4i+JikjPrNEWD6RJX89/ygNvqfeTr4fNCA98tCcvucqIj2j1g89rwH+PWbNfj1c4og9kCxVvf8rOD37xUQ+WpilPR3NWr6+EBY+P4wvviCMHr4SBZ89F80+vs0/Rj4MYMc8RljdvQQUz7xlDS2+t1QCPZgBob5fK3A8+4vuPeGuyr7Q04u+wLQdvo26Mz25TRC/ZBQaPk9BlLzggeC9r3XgvBuic75I7xy+E5WUPaScJb4Fjbc8rZy0vvZGpj2BsFG+CRkOvuVpOj4oOWU+Chr/PE0jZ71qiC+8mwOZPWfnKL2mx/g8EvQKPvVyTb6ofAA9VpAjviGoQD49pxA+SdIaPgCQKb5Pc9S71siBvk10MD4mmoU9pE+IPZGqQb1FNKA97Jk6vRH+Ar9Ja8W74Y1qu265Xr7UpRE+s/d/PO3qVL10CaG9Bak2vtg61L2sbhE+ak2Bvjoz1j7uWBG+/NOHvaOHCD7VIsq8IFhOPiGhFz1m9z89/7hKvmyZYb4l9kY9mrSgvss5ZL5zzKu8wjwPPvISKTyFpBw+r7tvvcLs77t/W1E9UAXdPA+CRT3+qfA9hN6yPVw1vL7Vw6u+SUqYvcncJb4udmy+9a/YPaeunz22pQO+4AOCPV28Ar5CF5O9gd6ZvvQ97D3NQMK+27FqvOgyDT4C6109Fx6pPdC2oL0EHtc9mxw+Ph34UT5LTCK+XkHrPSG8Vj5jRHY+wTl7PQX5kT4Y6rM9gOa7PtgUir0cnB0+oRVYvlwl1r3p+mq9oeh6vukRKb7Tjf49Oo5SPq1U9D2JewW+hnEuvN+NvL0/S5m9kJF0vkTOOD5o+au8Qy8Su0gAGT4CjGI+DYQhPXHZML6zOZY+bSaFvOdKO75zlTw+Pu8LPCY+7zz1rGc+wEiBPiPmGz5Ljh+9SYUfPnE/l74WMsA9dMdqvrkATr0jv2C+6B8/vg7Cvb0tSwy+AUmcPbiwNr64IBK9WRdOPleKPD71Yji+OBz+vANN5r08hPa9cM5dvkGhar1jSmk+8TlCPg4zKD03i76+PkSCvfLRO76X6zU+5vbvPfgwEL4b996918EGPo5Tvj008p890oTHPcWpGb2U5Dg+7yVKPqO0F75zo4E9A140vs5Ibj4qjZk+4UJHPZKQtb7MP4K+B6cZPvsfTDzrgX4+h2SCvud+Sb74pJy+hiBjvdysxzvo8gm+7acXu4IZQj2UTYU9TIc/PRXHxD2FS1m9/9m6PXBa0D1prBK+GYdDPqBae772YZ89pge8Pa6npr4H/jW+LzJPPM7VAL3Rw0o8tqEivvxjBD403EW+/OR8PYIelz0uxUq+dZ9ZPO2raz2Hfzk+b33FvhYi4r3u89y9W9+yvebmdz2gtHg93Ud7Pg2+vrwGlSS8rqBIPouxHL2G3BO+FQIEv7UydD7yXS4+Nr84vjpLgbwa4w888aOBPXmg4D6oHBW+7qdVvnphqzwUlei9XRg2vpWUDL8X/649hWVCvlA0j74dJ4y8Xkp5vgp5ET3YW9S8RsV4vs2eEbwcj9s9m/i+viFS4r0X0xw+BALtPQUPzz1Jrmu92A2kPaQipb6Y53M8ll0mvtRw0r4HVLW9BNXJvofPib0UdBc+GVT6PDVgc71vCoc92MqnvqKeVDrnyUw+Y93nPSBafT7m2Nm82bL7vjHYFD4Y/sY9PeQmP41EAz6ww1M+Rn0YPePbprx76Mu9Xe2hPF9Bcj0c+MA9ulvCvuvLHT9W1E6+Eh/UPUcdpj02bgW9yPo6PYXclT22QK4+UzHPvbhUrL18gH4+neD8PQpDrT1RjRI+CQ0FvzRVmb1Hc4K72GwDPRSlKD0P+J0+VVoFvu86ozw6Ty++b/IRPTIf5T00bfg7mp1svvIF+b040uo7Sz9pvd3drL2JsTg+MHpSPhV+arwaqry9695JPi6ud72dMPM9I3Y/vuLW/D3Uegm+w7FQu3XJDj5QXQO+5gSLvlezUD1xwHQ8Cp74vWLUqz2NgSc8zbohPp8+yLx+EEE+PR0qvswlnL0nCDu+yIOqvcQ6Cb6gWAi+jVBRvQye0Dw/h+I9UNsGvN4/3LsGhvw64e9/PFNAn70a/oY9DWUfPUIIBL77cOu9Z42bvr+HAr7dj7I9GZ6ove5TVL4LxYK9ndjJvk0IU71RmAe+n2kHPs4Aor2s+Rg9XLjHvEBgsD7GtB28EhqBvemkvr3106U+bIQlvX9WjD7Sq3y+nRZnPeeEjr6PSEm9acL3vKv6vDx2E9C9AligPbfR3jytYte+S5gGv6CLD7+GXcw+JWPPvp6nTb6vdiY+yn5jvtN8lb792VM9yxQDvmuuHr5cwQ6/D2S3vPvki74FUms+7auuPvDxwL0UI4c+2xNHPuZG4z7bNRU+b6TrPbvgRL2fHQm97j33vUSRU7uLbSc+nsWZvThf2r0RLdA+6hiWvCuIhj2ZdgI+jdJjviB0hr1F8n+9mV3CO6EkSb71bL49IQGJvZfofj7J5h0+5bB0vjXcDL5v3XS/Oe7kPSkxoT2y2e47ki+rPcnupb76Ue49266LvX7RnL2l5NO+H2A0PoGI6DxfIf2++5itvXmScb8D+LQ7e487v18Vn76pwyG+I5iGvG+oBD4laTi+jEZovm27Dr6uhTQ+cXmzvp0OBz5pabk+e8c5PuT2Yb3GeHg+ldY7vpCWrzx+JLM8esFovqQ6or2i06G99W4ov4qjmD7QUjA+qWeTvadDyL4dgvK99CM6PkBvZD2kxDq93luXPj3jZ75tN8Q9JsOEPmzHOD02J5G9t3jsvjpdPb44NYM6BjbHvuXIhT1OmT+9sqPwPoH+Xb0ph12+Y3YHPmZbTz3SinU734NlPhPXrD3Rj5g86CQkv7SnsD1pXzU7+PwuPn6aQj2/xcG9O2rTPnpBAz6eDws9LRNUvrQaDD5OK5C+PBrgvTAtu72+h/e9Wpq7vfM7mz3hY6q8Blp4PXP+8Tz6pK6+0oNevSM5Mj0ED+A9OZk2Pgjg+zzjrQk9hSC5PaAhn76WYLO9IpSBvtvl9T09u/6+LnpzvZn0ND75jaC+6NJtPhRXEj5XDKi8+pMpvoCcyb6XxMA7RJXdPodJgT1uUbw9y3ASvrNWOb1UJtE9ET3cvWpSDD5tdyQ98fdyvZpCcz7+uI49kV9XvnQAPz7FuIY+y+y5vRdzoL3G3jY9Yn2IPqEPZT2Kk0M9ZGeNvRAMCr6n9JQ951QQvhBurTznNIW9NZa6vWcn/z2EjE2+2avdveOc0ry0ohU+61JJvkRkhz1x29i98FsovTOoYr2a7AY+HkaAvd9z3T2brqi+H5ODvG19WL7HACq+oTaKvU+2sr72C1K9lmSSu9Imkz30eW68+CQNPUu6Db0m7S494J1PPS646r2on7a8sDUsva526j1K0ko990kGPj6pEj3NXE+9JghhvaJGFT5OZ7Q+dK8oPmf7kz1FQCY9v7fWvXeNbD6hu9M9+rehPevOdjxiyeI9s3MnvembLT3Tteg9jRARvhOO770uEpG+DAyFvURrrjys+Tm+G4ZJPeAeS7yoS+w9S5YoPmTSfb2VTwU+r0cjvlUWX7wOWkq/WqNivOYvsj4SmOG8rOBmvaW6Db9cdza+g9kjvoSImT1wIZi+gd4/PqfJGr5nv3E+p95TPZJS8r3N6MQ9cBQ4vii9Pr6RfRU+Hk2mvOaIqz37bq897jFXPSs4IrzWe7i7qKD5PQg2rzuQ/FO9sv0nvQ5lzr5A07681P7jvexw+D2L6qc914LzvnWLxL3wWhe9BVXkvGeJGr9iEti+q9JFPk1EOrsnNsu+BE0LPgCTbT7pc9s+MvqnvhYb2L3gSGC+5OpnPcB+bz5mrQs+cSq7vrdAMb7mqFI+vpgeviF3qL1bPM8+43aLvgw/9T0FpbQ+3jkXvlEJgr2KnrG9ThNLPUoIN747qwk+EluOPo5Y3L6cRUa+wtMevjvEPj45izS760ccPr7r4j2L8Gy+dhxHPpHv+z1+y2I9qhNWvYmJnL22kSS+0fIpPgGocz3QHK4+SvitPY0bsr3ZWhA+d2vYvWs0mT5SFsQ9xDHvPIScgr2V0zo9GcGevNQsej2FMok95zxIPeFkZzqpQp889j7evVFq1L0UtTg9kpkRvXspOj7zFQO+nCcyvpSJqTw71/e95v04PeZHBD4f2M69rZynPgj4VL4s4iS+O16Mvo3Pdj59Rao9cHdsvi1zTD7SI469IidlvgeMir7eNR4+e1unvptxH73hS4s+y2CuPK52qr4Ne4U+ScoHvkKzWr1/eJE8uWOQvjIIB7yxHNA9L29gvpdncDxvtKa+XVwgvYJsZr1TgFA+Q1Z5uQg5eL4DuL+8tB5mvqvFkr4hXWi9V01UPa3OYT2o5qE8Ub5MO2WLbbw5j4U9F6+sPYpHKz1+jWk9yjEVPX1QGD1fkmc+lqqRvp4ylr2xF6i+V+onPlhTc76XthQ+JDDBvfa80734gQW+uTdkvpRIAz4aZzG+5r7YPP0tLT67RL2+vi0Xvcepdj7enZi9LQ4Svjkefb5PfN++esklvs+I7z5Zl069M9cNvjr+XL025yS+Os92PV9vkr4Nm4g9apwdPgUJ+j3JMQy883pfPshhpz2flls8h7dZPNgXyL5xjlu/Zv2HPTovgr4mT1s6jatNvjePNz0Jl8Y9ewtUvtVkeTq98C2+XscgPeQo+zsJ2Bs9CvgePbDQ7T2B8Ay9EGBJPuLuP77I2gi+Hhv+vbgSIL1hfzQ9UQSevhMVNj5rgnQ+obnMvaTQAz0cTb86XydVPTUTCT6bFUM+vxphPlLcJD24Tpo9MUcAPkF+f71rlXG++KWQPdFPF76KBCS+c3SwvTqYEb6hqBE9gzgUvtPzjL2tZkA+comjviNWAb69T+m9fkiHPi5EDj6s3/489MrbvcE+DL4ZgM69Kd+OPSuKo70WR9i+j26SvqsX/L5Cj9K9VLoMPvP3sT4gFY8+F5YmPocEqb2OY2s94nV4PVovjT2+Mfa9OtCJvd+cqr1K8Ba+bxMePqAv2z2Ruyg+ZQuHvtH9+DwY8Sk+IVoRvrSBRT6d41A9RyajPRklHL7GD4g8DKdGvmRrjz282lG9rWwKvv2tET6rXPu9WfEWvqzzdD6vpDW9LzMDPe5+Gjxlcoy+jw2eOyhSvb6rp6s9cFb8vW5eHb0hHQw8JXDPPamGGb7rKvY9dTPJvRR2cb64/C++BzTsvQBURT4gzAQ9llg0PUhWDT6N2cM9nE1SvUoQxTxOjuU9u9LRvd/217yH5TQ+Mq1APvYZI76j8Yq8LZjFPYypRrkE7qk+2MjePBpDQz3/ngQ+GhIRPkws9j2nuOs9Gb6LPNzzUT7VB1W+LJSfvjXlaz4VKuw87Ad3PgweyDxOa3E+SFGmvgIztb0VCqS+HAH/vWEj773hwx6+jKbVvbBtib1VPe+9gtzfvYjYuDs5/ze/uTHdPRBeCT7/wVq+jy7HvfIvIr+svEG9xPf2PDQPiT1a3648RkH4PKzdvD0/Cl8+EangvTtV6b2xhBo+fGREPvYjIj6d/Py9KSCyvmQkdb5c2vo8N7PdPZzD1T1x3Lk9z09CPorr1T1kVk8+7leDPTl1u71dB08+5deaviIper1xb7q9SOZdPh12/b1/Cm8+lNqgvrSuwT4mm3g94Y/1vVqclL4PaD0+Epu1PIkHOzxkxpk8VAAAvRRyiD0W/Jc+ZI87vmzxLr6avq+86wmRvc3Jhz3jsYY96KzMvWmBf7wlV4E+xih9vYBegTyoppq9DY30vWileL5Imhm+VtATvnD0rz7ezhc+NbtcvvJ4/z2EzI0+eL27vTscWr1zFW2+bZVnPY08zL3HVDe9w3ldPmZSUbxJDMs+jsWUPVLK2r3l0Ou9sUVQPYxlbb0XnY09EDFjvkqvrT3cBoE9fUyevQNqXj6VYKk++6h8vb4KFr1htTm+YUesPZQRjL2koq2+nAnfvLthlT34w4497GSBvfXmE79d3ni+Tnr5vddtyj1q9vM8uxfivtTdLz4EpQC+9IVcPMxTi75kBxG+BHLBvEl0rb226uC9+LhYvl+5BL6e5LC+DFjzvUBEsb3t/aM83Gm9vLWRKD6wr4+98DDXvclov7ufKpa+9uCqvWqpIj6BOiM9S7DgvBe2Yz70LRK9neaWvVjR/b3Eb1Q+wAiDOzw7lL4Sxzo+pJ/Jvs9AkT5w/7y9H1cjPuyPMT2RyGM9Fd